[PAD]
[unused3001]
[UNK]
[CLS]
[SEP]
[MASK]
##er
##en
##ch
d
##ei
##un
##ie
##st
##in
##an
##es
##ein
a
s
##ich
der
##ge
##on
S
w
##te
##ung
##sch
##und
die
v
A
##ar
##or
B
D
##ur
##it
ein
b
##ll
und
##at
z
##as
i
##ten
##hr
##em
in
##us
##gen
n
##al
E
M
##de
K
m
##ter
G
1
##uf
F
##den
##der
er
##lich
f
h
##ach
P
##ber
V
##et
R
##el
##eit
W
##ig
zu
##is
##ra
H
##isch
den
ge
von
T
##icht
des
##am
das
L
##Ã¼r
k
##ier
##re
2
##ol
##om
N
I
an
##ut
im
##um
##uch
##and
##ck
g
J
##ben
mit
auf
##ste
##ent
##ion
##ro
ver
##ls
Z
[unused_punctuation4]
##ir
Die
##il
ist
dem
##la
St
be
##rei
Ver
##le
##ahr
##ft
U
##sen
##ger
##ann
19
fÃ¼r
##ah
sich
##se
##kt
aus
20
nicht
Sch
[unused_punctuation3]
An
als
##ungs
eine
##ischen
C
##Ã¤n
wur
##men
##ver
##au
Be
##ff
##be
##wei
sein
##sp
O
o
##och
##ik
In
un
##ne
##esch
Er
bei
##eil
l
so
##sten
##Ã¼ber
##ungen
war
Re
##ien
nach
##etz
##Ã¼n
##cht
wurde
hat
auch
##iel
##ri
##ehr
Ein
##lÃ¤
vor
##scha
##gt
Jahr
Ã¼ber
sch
##hn
##stell
##he
t
##ind
##all
##ern
sie
##urch
##hen
##eich
##eu
##aus
##igen
##Ã¤t
dass
##rie
##ag
##os
einer
Ab
##ad
##ab
es
##ort
j
wir
Der
Un
am
##ul
##ot
##lie
##ation
wer
Ge
st
[unused_punctuation2]
p
##ster
wie
##schaft
##lichen
##enn
##ang
##ser
zur
##im
ihr
bis
##hal
##rt
##end
um
zum
durch
##ische
##wer
##lle
##rÃ¤
werden
unter
##hl
##Ã¼ck
##ing
##zu
##ru
ent
201
vom
Sp
##tra
200
##mer
##chen
ab
##gel
##eut
##est
##Ã¼hr
En
sind
##ige
##op
##ran
Aus
wird
##iv
3
Das
##Ã¶r
einem
Ber
##rund
##eiter
##00
##art
einen
Mit
##tet
##nen
##atz
##uss
oder
##ges
Vor
ha
##Ã¶n
Pro
Auf
##eits
Ar
##ill
##ed
##her
##iert
##liche
##geb
##ist
##auf
Nach
##pp
##ahl
##oll
##zen
##eutsch
##tel
##ht
##pf
##ert
##ass
##rit
sp
18
##ell
##ord
##eben
##che
##ner
##Ã¤r
Im
##lin
da
all
sei
##bar
##Ã¤hr
##lag
##gl
##ers
nur
noch
##rÃ¼n
##keit
##det
##alt
##lt
##uÃŸ
##wie
##anz
##iz
##og
##trag
##rÃ¼
ber
Sie
##elt
##me
##land
##lÃ¤ger
##ommen
##bt
##eine
##nis
mehr
ander
zwei
gegen
##we
##orm
aber
##acht
Unter
##ug
dar
Ma
KlÃ¤ger
##dig
##fahr
##pt
##ffen
gew
re
##ess
4
##).
##fol
##ub
##eiten
##ohn
zw
##adt
##ick
##onder
##ud
##ust
##ken
##mt
Land
##ant
##ze
Zeit
##fÃ¼hr
dies
##ho
[unused_punctuation8]
##etzt
Abs
weiter
##ap
##nah
##wa
##id
##dung
##ss
kÃ¶n
##ech
##tern
##ic
5
##arb
##ha
Kon
##neh
##teil
##fall
Ent
eines
##ren
##lei
##mal
##zeit
##ob
##ÃŸen
##ler
##fen
##utz
##stand
e
Ges
##ierte
##aten
##ieren
soll
lie
hin
##bur
199
##ak
Arb
hatte
Bei
wurden
##orden
##Ã¤ch
seiner
Recht
##reich
haben
##mit
neu
##lage
man
kann
##.2
##itz
Es
Bet
##heit
##lan
##assen
##att
##ats
##bst
##glich
Um
##dem
##ok
kon
Mar
r
Deutsch
seine
Bund
##),
##hm
Al
##Ã¼t
gen
##luss
Se
So
##ÃŸe
##gem
##ktion
##vor
##klag
##spr
##ast
et
Her
##zi
##fe
##iger
##los
##br
##eigen
bes
Eur
wieder
##",
Ãœ
Ch
##ga
##schei
##ande
##ischer
##gesch
dieser
6
##ierung
##vers
##gan
ins
ges
bet
##ens
je
##ia
sowie
##stÃ¤n
##01
##ften
Besch
##ammen
Fra
##schen
##od
##nung
habe
##sicht
wenn
##ahn
gem
Stadt
##ale
##igkeit
##lo
##itÃ¤t
Grund
##rich
##rat
##schie
le
Am
##halten
##olit
Jahre
##halt
##sk
De
##amt
Bundes
##annt
Beklag
##Ã¶ff
ger
##reis
##stellt
##inder
dam
##ard
##ov
##hÃ¶r
##Ã¼d
##elbst
##unden
##lung
Ãœber
##rieb
##for
zwischen
Zu
##burg
##erk
Ste
seit
##lieÃŸ
##net
Jahren
##usammen
##eist
##per
##alen
Gem
##ow
##gung
##hÃ¤
Fl
##walt
##eld
Fran
##sel
##aupt
diese
##grÃ¼n
##omm
jed
erst
##tete
##zeich
ange
Reg
##ember
##fer
##zent
##Ã¤nder
##qu
7
deutsch
waren
##ark
##geben
##inn
##eg
##rech
17
##stehen
Gesch
##rÃ¶
##gericht
##eister
##weise
gro
her
##icher
##recht
##bau
Sta
Wir
Ro
##tem
##tschaft
15
##ium
##berg
##.1
##ingen
##iet
198
ausge
##uer
keine
##leich
dann
worden
Ger
Ko
##rupp
##einen
##oren
##setz
drei
##ieder
##ay
bef
ihre
##eter
##eim
##satz
##Ã¤ter
##glie
##fÃ¼
##iss
Br
##haus
##halb
##bl
##hÃ¶
8
##pl
##hne
##imm
##ater
##grund
##Ã¤ÃŸ
hier
##ks
##nehmen
zurÃ¼ck
##gend
##ett
bek
##ibt
##ont
##Ã¤hl
##steht
##wir
kl
Berlin
ihn
Teil
kÃ¶nnen
Gemein
##zie
197
##hem
##ekt
##uÃŸer
##St
##spiel
##amen
Welt
Geb
##Ã¼s
##eb
##nte
##igt
##min
##ild
##du
##pr
eigen
##gte
##ionen
16
jedoch
wo
##igung
##000
Da
gesch
Rechts
##mann
Art
##ma
##egen
##gs
##Ã¶glich
##Ã¶l
##issen
##nahme
##iele
##ielt
##Ã¤ft
etwa
Stra
9
schon
##ende
##licher
##amm
##pro
##anden
##ding
##ienst
##ke
Sa
##ian
##fahren
##war
bereits
##if
##tre
##reit
ersten
selbst
fÃ¼hr
Or
beim
##io
ihm
Bau
beg
fol
##kte
##zeu
best
##achen
##llen
##rÃ¤s
196
diesem
La
seinen
##kehr
##essen
##Ã¤hrend
194
Spiel
##bes
##ierten
KlÃ¤gerin
##hol
12
ihrer
##wick
seinem
##falls
Kl
Men
##licht
##ister
Q
10
##form
##wÃ¤
##Ã¶ffent
besch
##1.
Leben
gel
##isten
##zt
Pl
Auch
Deutschland
##esen
ob
14
##our
##als
##ive
##spruch
##ehen
##gegen
##zel
##deut
##mittel
##fte
Antrag
anderen
##eute
##abei
damit
##atur
##zw
##rift
##unkt
Aut
##ucht
13
##gang
##stellung
##lagen
##stra
Part
##ker
FÃ¼r
##ikan
##ult
##ilm
##ogen
geb
viel
##gleich
##hÃ¤lt
(1
Ort
##ald
##wend
HÃ¶
spÃ¤ter
Pf
wen
##forder
##iden
kom
##ym
##ander
1.
##amil
einge
##hin
##fÃ¤
##ichte
Als
gibt
Mus
erk
dort
Bes
erfol
##asser
de
##richt
195
##cken
##zahl
Ho
##ivers
##erson
##ition
Kar
Haupt
gleich
Le
Vers
eben
##ph
Mill
Eine
Euro
##agen
##aum
Urt
immer
##auer
##kommen
##.0
Ende
##ine
##orf
Ne
Mon
##ache
##ober
##lauf
193
ohne
Hin
##ank
verb
Kir
##unter
##undert
##ire
Bl
Arbeit
##".
Frau
##ritt
##Ã¶s
##gangen
##ce
Gro
##olog
fest
##iff
##ondern
##aut
##enden
fin
Qu
US
was
##ate
Min
##Ã¤nger
##.201
##anu
sondern
liegt
##hof
##hand
##Ã¤tz
##schaften
Mitglie
##olitik
Arbeits
ar
mÃ¼s
Ober
##ule
Mann
MÃ¼n
weil
##ade
Pol
##gri
##fl
alle
##stellen
##sta
Gen
verl
Frank
##scheidung
##cke
##rin
##uni
##yst
##genden
recht
Fall
##bei
##zial
##ange
##rad
##ohl
All
aller
Diese
##assung
##lau
kein
SÃ¼d
Jo
##rÃ¶ÃŸ
Te
##Ã¤ng
pro
##ational
##hil
Haus
##ram
Verb
Fol
##itt
Dar
wegen
##age
Prozent
wel
##Ã¤rz
##ere
##gaben
El
##dr
Bo
##wert
zusammen
##reu
##ellen
GrÃ¼n
##fÃ¼r
##gar
vier
##igten
hÃ¤t
##mus
##fÃ¼hrt
##sto
ihren
Wei
##Ã¤chst
##schieden
##ans
##hundert
##fang
##stÃ¤nd
Verein
##gehen
Par
RÃ¼ck
Beklagten
Ã¤
##agt
nah
##sche
##erin
Ã„
Kinder
Univers
##legen
Aug
##zug
Von
Europ
Menschen
##ationen
##lossen
##anuar
##oten
muss
##ron
##Ã¤m
##uft
konnte
Beklagte
Person
##uli
##Ã¼rger
##Ã¤u
##Ã¤d
##ystem
Ã–
Neu
Mo
Fin
Ha
##meister
##rÃ¤siden
##rum
Gemeinde
##..
Satz
##fra
##gew
Fahr
##ruck
##ktober
Ex
##omp
sol
##uten
##ider
nun
Y
Famil
Durch
##kten
ersch
al
sehr
##stadt
zun
teil
##old
kam
Man
Beruf
##eite
##von
##rist
0
##zember
of
wÃ¼r
##tember
##kl
##/1
heute
erste
Juni
Dies
##ehl
##ptember
30
Co
darauf
##urz
For
##enz
##bet
##lieÃŸlich
##ball
Zwei
##rag
##wohn
##heim
##dings
##punkt
##elle
##rot
Regel
##weis
Fest
Film
##lÃ¤r
##akt
beiden
Landes
ich
##Ã¤re
##Ver
##rechen
##GB
grÃ¶ÃŸ
##.000
##ruppe
frÃ¼
##Ã¼nf
##na
dessen
Gegen
##ite
Urteil
##asse
##kon
##ko
192
Nord
Unternehmen
##res
Frei
##ute
Chr
25
wÃ¤hrend
seien
##eh
##raum
##tag
Mai
Januar
##reichen
gehÃ¶r
##ellschaft
August
##...
letz
allem
##rach
##agte
##tei
deren
##iere
##ovember
##eiÃŸ
##itzen
##legt
##rieben
Oktober
##pril
Â§1
##ison
##waltungs
gef
HÃ¶he
##ott
##werk
MÃ¤rz
##heits
Juli
##vgl
Seit
The
neue
Inter
Kam
##besch
Schul
aufge
##rem
##yp
##itel
##gabe
##schutz
statt
##gemein
Nr
woll
##sst
##ond
##weit
##ele
##az
Komm
Sen
Jahrhundert
##treten
##sprech
September
II
##.200
##ondere
##ennt
##nahmen
##bung
##ried
sagte
##ost
Amt
##unde
##verb
##fin
##ubl
##schluss
Dezember
##eins
Krie
abge
will
neuen
##eid
##ys
##mals
Stud
##ac
vers
##zer
Betrieb
##hÃ¤ltnis
Zusammen
Gericht
Wohn
Dienst
11
##genommen
##kauf
Gra
Leist
##schn
dah
gab
steht
##mÃ¤ÃŸ
denen
##aden
gest
Mal
##griff
Wer
##keiten
##rom
verw
##ip
Kosten
##bil
Wie
##Ã¤nd
##wohl
##cher
en
Partei
##alien
##ennen
November
Th
##raft
##eint
dieses
191
##Ã¶nig
April
##jahr
##echt
Ant
##bahn
Rei
##ordnung
2012
##annten
dabei
##annte
2010
Son
weitere
jewei
ganz
Vol
Ju
##so
c
fÃ¼nf
voll
##ebru
##ebruar
andere
Und
Mitglied
##yn
zunÃ¤chst
mus
Platz
Me
##man
Hand
##zogen
##iven
##dern
##ina
##erikan
GroÃŸ
Med
bzw
##wiesen
##unst
##gten
##eln
diesen
deutschen
##geber
Wirtschaft
##Ã¼nst
##urteil
2013
##rÃ¤n
##minister
hÃ¶
auÃŸer
Sach
22
24
2011
2009
##issenschaft
2014
##bach
gewesen
##Sch
geht
FuÃŸ
Wasser
Wahl
##lÃ¤ss
##ions
##ultur
##Ã¶t
##gesetzt
##stein
##reg
frei
Entscheidung
Zahl
##gesetz
lei
##hielt
##nehmer
##jÃ¤hr
befin
##riv
Tag
Gew
##fern
spiel
verm
##eitung
dazu
Buch
Lebens
2008
##bert
##hung
##ame
Dem
We
##immt
##enk
Li
##org
ho
##stalt
##andelt
Ur
##zeichnet
##innen
##fur
##del
##ai
##ckt
Ob
##")
##stre
offen
Mittel
##Ã¶st
##gebiet
davon
##mar
Hoch
ben
Woch
##Ã¤hlt
ihrem
sagt
##angen
##fach
mÃ¶glich
Februar
##sy
##iga
ex
EU
kommt
Gesetz
Tra
##tragen
mÃ¼ssen
Form
Staats
##ations
##gestellt
viele
##setzung
Saison
Millionen
KÃ¶nig
##eren
##andel
##grÃ¼ndet
##ial
lang
verschieden
##feld
[unused_punctuation10]
23
Verwaltungs
Schw
2015
Rah
##eigt
ebenfalls
##ismus
zahl
##anach
Ind
##ou
##Ã¼tz
##iner
BÃ¼rger
##sol
##gerichts
##ilt
Politik
##besondere
##dete
##voll
##nten
("
MÃ¼nchen
bekannt
bel
hatten
rund
gut
##els
##ganis
Einzel
##rÃ¼f
##olf
2007
##ungsver
Rahmen
##jekt
Ka
##ehmen
Musik
##steller
##Ã¼b
##reiben
##kung
##ret
##krie
Lie
allerdings
Poliz
##stÃ¼ck
##achten
##schrift
sollte
wicht
##igte
##lichkeit
Bar
##fÃ¼hrung
##Ã¶rder
hÃ¤
##asst
##sver
At
Intern
Nieder
##rÃ¤gt
kommen
Bay
Kap
Sicher
Fern
Denn
lÃ¤
##ritten
##sterreich
Ã¶ffent
GeschÃ¤ft
ehem
##ruppen
##gesamt
doch
Werk
##digung
##ichtet
MaÃŸ
nie
##zess
Lin
wÃ¤re
##stit
##rauch
##alb
##unft
##wahl
##schule
Klage
##alter
##straÃŸe
##af
UniversitÃ¤t
Beschluss
##schied
##up
erhielt
##chn
##ib
##ichten
##rÃ¤sident
Fre
##orn
##was
##zÃ¶s
##ehn
sech
##steuer
gelten
##einander
2006
##esse
##ktur
##wort
zwar
##rigen
##inde
##arbeiter
##lam
Bahn
##ore
##gebnis
Ol
##av
gilt
28
(*
##stens
schwer
werde
stehen
##sichtlich
##ieg
##leist
26
Flug
also
##pflicht
get
lassen
##hÃ¤ng
besonder
##irekt
Produ
Namen
##Ã¶lker
form
2.
##opp
Gl
##roffen
gegenÃ¼ber
##hÃ¶rt
blei
27
##vis
##nete
##ramm
Eigen
##unktion
##gie
Sport
Zw
ehemal
##Ã¤l
Jahres
##kunft
##,5
aufgrund
Ich
##ack
Ihr
##racht
Ange
weiteren
##kreis
FA
Doch
##alten
Lehr
##hein
Kran
Sin
Frage
##/0
Neben
seines
Bel
Christ
##ika
##ient
groÃŸ
##utter
##loss
Richt
##stimm
Kirche
##standen
Deutschen
Car
Em
Eis
##istor
Kunst
Frankfur
anderem
Reich
##echsel
Bereich
##ator
2016
##amp
groÃŸen
##hel
##uÃŸen
erg
Erst
##schnitt
##schul
##erst
sÃ¼d
Ser
Ad
neben
##chte
##haft
##lex
Verl
##inger
Hier
##rÃ¤ge
Streit
##Ã¤ude
##weg
Weiter
##ierungs
##schein
##ris
Fried
Schl
##frei
##ilit
Kont
Vertrag
##eile
Finanz
polit
##iker
2005
##Ã¤tzlich
##ek
Erfol
##bild
##stag
##fahrens
einmal
##ula
##iell
dafÃ¼r
Geld
##heiten
##assungs
##achte
begann
Ham
arbei
##ogra
##Ã¤tig
inner
##ublik
bisher
akt
einz
Bur
##stÃ¤ndig
##ins
Gener
##red
##urop
##handlung
##werb
##aÃŸ
Tod
##endet
Familie
##fs
machen
schw
##ue
##Die
##osten
Lei
##hann
Sohn
##plan
Stand
##Ã¤nde
besteht
##laub
##sprechen
##99
denn
##ufen
New
##rotz
hÃ¤tte
##inter
tra
##ity
##stellte
##eig
##iter
War
##lungen
##fert
##ons
##je
##gende
FuÃŸball
##dent
##blem
##piel
Di
letzten
##ommer
##zÃ¼
##cker
Kur
Dam
insbesondere
##ranzÃ¶s
29
gemÃ¤ÃŸ
etwas
Titel
Bild
kurz
weit
##Ã¼cksicht
##wirtschaft
##isk
##wicklung
Rom
##An
##lieÃŸen
##zir
Anfang
##gr
Prof
Is
##eder
##lÃ¤t
gehÃ¶rt
##isches
groÃŸe
Dabei
unbe
##bereich
Gel
##weisen
##werde
##llt
##ologie
##iges
ging
##druck
jetzt
frÃ¼her
Hil
##zept
Zent
He
deut
keinen
gemeins
##unk
ur
Wider
##hei
deshalb
Aber
##ums
##atsÃ¤ch
##arten
##affen
verÃ¶ffent
##achsen
##wohner
Bas
##onst
erz
erhalten
##wand
Frauen
##vÃ¶lker
West
jeweils
X
dÃ¼r
Sk
##ide
wÃ¼rde
##kÃ¼n
Ter
##schlieÃŸ
vorlie
Polizei
zweiten
190
2004
Region
daher
##fÃ¤h
##ffiz
Anspruch
bean
Beg
##ral
##ct
National
sollen
##co
Gesamt
Johann
##wor
##renz
FAZ
##such
##fassung
eigenen
bil
##ymp
befindet
##inen
KlÃ¤gers
##unt
sechs
WÃ¤hrend
heiÃŸ
##lang
Jugend
##bildung
Akt
Tur
heraus
##stelle
Schwei
##one
##teilung
Steuer
kÃ¶nnte
##In
entwick
19.
##schlag
##eitet
##wendung
##nahm
franzÃ¶s
##ters
Bis
##Ã¼ss
Herr
Band
##platz
einige
GeschÃ¤fts
zehn
##sitzen
Uhr
Mehr
##umen
Verm
##zeug
##ilom
##heb
##hang
##ppen
##prÃ¤
##scheiden
sel
fast
##stitut
ch
##iver
Sinne
fehl
##utt
##indung
##akte
erforder
Selbst
hinaus
nahm
##arr
##3,
##oph
welche
##orgen
##oss
intern
##bend
erne
##geg
deutsche
##Ã¤nge
##flÃ¤
Geschichte
##nell
Ergebnis
hinter
nichts
##ission
##lungs
(2
Erk
heiÃŸt
Was
##van
insgesamt
##Ã¶rper
gerade
Ins
##ies
lÃ¤sst
versch
##0,
bestehen
##ven
##dar
gewann
##bel
##reffen
##mÃ¤ÃŸig
[unused_punctuation1]
te
Fach
##hle
hÃ¤tten
Met
##par
##gangenen
grund
Schutz
##buch
stark
##mitt
Plan
Zur
Dort
Personen
Autor
bede
ne
##neten
Pat
##reiche
Kultur
ihnen
##1,
erstmals
##haupt
Phil
##des
##2,
fÃ¼hrt
##dienst
##iels
Hol
mehrere
Seine
##Ã¤ten
Folge
##19
blie
##ift
Bil
##are
##iat
##mehr
##onnen
##xt
##Ã¤tigkeit
vorge
##ital
Den
the
BevÃ¶lker
Them
Sozial
##reicht
##gelt
la
beh
##ius
##gesehen
##glichen
uns
##fel
Ph
BÃ¼
##Ã¤ndern
Heim
Lu
tatsÃ¤ch
or
gegeben
Mich
##ffe
Wenn
##alitÃ¤t
Schrift
##kam
##sehen
Luft
for
u
gemacht
kÃ¶nne
MÃ¤n
allen
##wG
Wochen
##ings
##PD
Ta
Ru
##scheid
3.
Markt
Verkehr
Gut
Berg
Ra
##uren
umf
##arbeit
Ren
##osition
##gramm
##ode
Natur
##chten
##ationalen
Will
Zum
Sein
##vin
Char
stud
San
Mitarbeiter
Regierung
##unkte
##ienen
##Ã¤cht
189
##hoben
##echn
Ost
##50
Alb
Ziel
##Ã¤mpf
##baren
Voraus
musste
errich
##alle
100
klein
deutlich
##setzungen
##esent
Mitte
oft
##hnt
##sprÃ¼n
##ochter
##kur
##rÃ¼fung
Gesellschaft
##5,
Weg
50
Rn
##bo
##geschlossen
##welt
Kat
##riften
spielte
20.
el
Ã¶
lange
##nal
##lass
Einsatz
FÃ¤
##port
##opf
jeden
setz
entsprechen
##immen
##atten
##vent
wenig
##deten
##ka
Sommer
allein
sogar
2017
Au
Stre
fÃ¼hrte
##diglich
Tor
FlÃ¼
##4,
Gebiet
Mot
Alt
##of
Arch
Sitz
Vater
##km
schlieÃŸlich
Des
einzel
##tert
Weltkrie
##dorf
Volks
finden
Bedeut
macht
jur
Beschwerde
lediglich
##ichter
##teten
##stru
18.
Beispiel
Rad
Nicht
Staat
##amten
##da
Fir
##son
##geord
ern
Verfahren
##wehr
Wieder
Zeitpunkt
##enntnis
solche
sehen
##ilometer
##richtung
##halts
Mutter
##lÃ¤uf
2000
##rÃ¤ger
##GH
##ipp
br
##sport
Wert
Don
##liches
Dieser
187
##30
##wig
##kir
##antwort
##ativ
Kreis
##obil
##gef
Su
##aul
Tr
handelt
wohl
wechsel
188
##solv
Beteil
Team
##wÃ¼r
AuÃŸer
Voll
##arm
##ve
##Ã¼hl
##hren
Ehe
Ã¼b
Amts
##mb
##obei
##Ã¤ischen
##ument
##ied
##zieh
##8,
angeb
Meister
Wien
##fÃ¼hrer
##omit
Bedeutung
##6,
stand
amerikan
innerhalb
MÃ¶glich
##ry
Ben
##reuz
â‚¬
Zug
##ock
Sal
##th
Peter
15.
##Ã¶gen
Je
Mag
##lÃ¤rt
##grÃ¼ndung
weniger
Spr
##nach
Erfolg
##ersÃ¶n
bezeichnet
2003
##ice
##legung
##nungs
Seite
##uchte
Wil
##oder
##zeitig
##hinder
##aar
##zip
##aler
Mont
##hard
Â§2
##Un
##Ã¼nd
##Pro
alles
##Ã¤ren
##istischen
(Â§
##alis
1,
gehÃ¶rte
##lager
wollen
mei
##ief
##oweit
##utzt
##reise
##scher
Kind
##fest
##abhÃ¤ng
sicher
wobei
Kranken
(19
##gruppe
##burger
Friedrich
heut
Tochter
##tlich
Not
##schlieÃŸend
VerfÃ¼
186
Meter
##ure
StraÃŸe
bestimm
##ose
##uchs
besonders
##anken
em
Familien
entgegen
##laden
##vest
##lÃ¤rung
##iar
trat
##ilitÃ¤r
Krit
It
##ase
##7,
damals
Zust
Problem
##ote
##digt
hoch
formula
Angaben
erfolg
##stellten
erreich
Rep
deutscher
##stÃ¤nde
zus
2002
Amer
##rop
21
##ieten
##anten
##duz
##les
Kn
##ifiz
##frist
fand
GebÃ¤ude
##fassungs
StraÃŸen
##ikt
zeigt
##lassen
##ork
##uchen
##etzung
##itu
Mannschaft
##stellungen
4.
[unused_punctuation13]
##int
11.
##staat
##iser
##ustrie
##Ã¤um
##FH
16.
Nutz
17.
Europa
wahr
##verhÃ¤ltnis
Minister
##ents
genannt
##renze
nÃ¤ch
mÃ¶
tÃ¤tig
verst
##.,
Hinter
##will
Inform
##teilt
wÃ¼rden
##maÃŸ
USA
zudem
BevÃ¶lkerung
Lauf
##tritt
40
not
##ath
Komp
##sbe
##rik
##herr
##schriften
Entwicklung
zuvor
##.)
Dorf
Senat
##Ã¼nstler
Gruppe
qu
##eiger
vergangenen
Stein
regel
Bayern
Per
##reibt
fort
ind
##laus
gesetz
Beit
gar
##sÃ¤t
arbeitete
##scht
zeit
##schw
##amerikan
Seiten
acht
##9,
grunds
##schuss
##sprechend
##ets
Betriebs
findet
##vertrag
Bezug
##pen
##zus
Folgen
Gleich
Kom
##Ã¼cke
##VG
##izin
##dre
stellt
##ehm
##rug
##zern
##aat
##adem
inter
##gehend
##eils
grÃ¼n
Rolle
##ungsan
danach
##osit
leben
Bank
Raum
##Ã¼rk
Zwischen
unterschied
##sych
##folge
Hein
Damit
##icherung
genommen
14.
##mbH
##mÃ¶glich
Eltern
##pflich
Olymp
##leben
Staaten
##use
##ller
Berliner
##keits
##SG
##ichts
##20
Frankreich
ursprÃ¼n
2001
Kor
trotz
##bte
auszu
liegen
##etten
FÃ¼hr
Ã¤l
Beginn
13.
##blick
##itter
Krieg
##euer
BVer
##ettbe
##bare
SÃ¼
##reifen
##stands
Cl
schnell
hÃ¶her
jeder
##sprechung
12.
Rhein
##adurch
AuÃŸerdem
##omin
brit
Jahrhunderts
geboren
##Bl
blieb
##ungsbe
##anischen
##stoff
Tran
besser
##ksam
Bru
##tt
Herz
erfolgte
##pfer
##liga
##verkehr
##fallen
##ts
##uen
verfÃ¼
##zeichnung
##kel
sieht
##ax
studierte
Einwohner
##ergie
##rÃ¤sent
##oc
##derung
Antrags
##sam
wirtschaft
Stell
lieÃŸ
Ã–sterreich
west
##ael
wollte
Schiff
##schlieÃŸlich
Tour
##verfahren
##seh
21.
##ette
Kirchen
Che
Nachdem
Bra
entstanden
##linie
##weck
##uter
Rat
##auspiel
Dr
darÃ¼ber
Hel
##ana
General
##tler
Wort
unser
Zeu
hÃ¤uf
reg
Fort
##orge
##hausen
nahe
Pap
Zeitung
##attung
##allen
##ull
nieder
bed
##schung
##arif
Kilometer
##bringen
##isse
vielen
konnten
1990
##gra
##ix
##18
##kosten
##ammlung
Gerichts
##fluss
Techn
##ennung
bevor
wei
mal
##anwalt
##eier
##Ã¶rd
##Ã¼hren
Berufung
##ournal
##II
##stÃ¼tz
ihres
##wagen
meist
Daten
##zig
##spiels
##andels
##geld
Tat
##rand
Revis
10.
Mark
KÃ¶l
##yr
hÃ¶ch
Franz
Liter
geworden
daÃŸ
##wasser
juris
##rivat
and
alten
##helm
Sol
sieben
##tens
John
31.
Kommun
FrÃ¼
##ziehen
Kraft
Schm
##ingt
verein
Hei
##fort
sowohl
Zusammenhang
einfach
TÃ¤tigkeit
staat
SÃ¼ddeut
##schafts
Vier
5.
##ign
verschiedenen
sogen
30.
##gebot
verkauf
meisten
Besitz
##fr
##napp
Antragstell
##Jahr
##hÃ¶rde
Bi
##dert
##eller
##kungen
Mart
Red
##west
##Ã¼tzt
##wech
Frankfurt
##nungen
Sam
##ders
##lÃ¤nd
Aust
##olle
Wirtschafts
##drÃ¼ck
System
Res
hervor
erneut
##anstalt
##wÃ¤rt
##reten
##kret
berÃ¼cksicht
##hilfe
##markt
##wur
##vol
Vort
Schauspiel
##stÃ¤t
##tragt
Sonn
##hnen
eigene
##iken
##ktionen
folgenden
Dan
##urs
Gott
Ak
Insel
##loster
##orgung
##zwischen
GrundstÃ¼ck
##Ã¼tzen
##endete
Rechtsprechung
##ungsk
##llig
##atÃ¼r
Thom
Et
Preis
##ino
Funktion
Mode
##ca
##essor
gek
##gegner
gehen
##Ã¤ndert
##ritte
Alter
##ches
FC
##/2
##aren
##udem
6.
beteil
Gef
folgt
##gewiesen
##laufen
BGB
gemeinsam
Zweiten
Danach
Innen
184
1999
Prozess
Ã¤hn
##verband
Lage
europ
Landkreis
Karl
##ollar
##regierung
##stieg
zie
##ondon
fÃ¼hren
##Ã¤ndig
kaum
gegrÃ¼ndet
VerhÃ¤ltnis
##waltung
Ã„n
##nehm
##undes
Anlage
Italien
##letzt
Weise
##gesellschaft
Tage
##ative
##andid
Gast
Port
KÃ¼n
##urm
##ftig
##stÃ¤ndigen
Hamburg
##rolle
Zudem
Sil
Burg
finanz
gehÃ¶ren
##elte
7.
##ziehung
##10
erf
Deutsche
##die
PrÃ¤sident
MÃ¼
GmbH
##spieler
abzu
##lÃ¤ssig
Milliar
geben
##itÃ¤ten
Begriff
##len
Winter
##PO
Hans
wichtig
##okrat
Engl
##iums
##sprÃ¼
sollten
Fot
##sie
##ivil
##ille
Drei
##under
##reiten
kÃ¼n
##Ã¼lt
Provin
zweite
SchÃ¼
verbunden
Norden
##schau
8.
##alk
##fft
##pon
AuÃŸen
genau
Wolf
teilweise
verwendet
9.
##DR
verpflich
##anzen
##ors
##ligen
Muse
geltend
##immer
London
##fahrt
##emen
##orp
##gn
Dass
star
##schlÃ¤
York
##stimmung
Paris
gelegen
gewÃ¤hlt
entscheiden
Â§3
Erz
##rats
##last
##fG
##sitz
##rÃ¤sidenten
##othe
ebenso
Kriegs
zuletzt
VerfÃ¼gung
EUR
Michael
##rÃ¤um
##zuf
SPD
wechselte
Schwe
##utet
Kan
##ias
Wald
ober
Voraussetzungen
nÃ¶rd
Leistungen
erÃ¶ff
Ba
##uk
Ele
##akter
Sonntag
##itze
kleinen
##ieÃŸ
Parteien
##spielsweise
##fter
erwar
Russ
per
Verfahrens
##ling
##part
##isiert
Halb
FlÃ¼cht
##bracht
gestellt
Sc
##rechts
##DU
Fehl
Viel
##gemeinen
machte
Boden
##itten
entstand
erklÃ¤rt
##system
Heimat
ergibt
Versicher
##15
##han
Eisen
##Ã¼rz
end
##atte
Bern
Kampf
##entscheidung
Bescheid
Go
insoweit
Thomas
spe
eher
##zirk
##onn
Stelle
Ed
##barkeit
darf
##met
##arbeiten
Bek
Park
##fehl
##istische
kÃ¶nnten
stellte
Rund
##elig
##rieden
Klein
sonst
##Ã¼sse
Pal
Wahr
##akteur
rechts
##forderungen
Schn
##AG
unmittel
22.
Kauf
##ain
##rig
##eicht
##orie
Du
BegrÃ¼ndung
##Ã¼cken
Vergleich
##wegen
SGB
##ager
##iko
HÃ¤
##ars
Paul
Heil
Regelung
##unge
Ã¼bernahm
##betrieb
Merk
25.
Eben
##prochen
FlÃ¤
##zehn
Richtung
nachdem
Hof
##ausch
##radition
1945
##berger
bleibt
##haben
bleiben
BFH
##ement
grundsÃ¤tzlich
Wor
erheb
Ã¶ffentlichen
##ationale
##handen
erfÃ¼
derzeit
##ep
histor
Milliarden
Erd
Spieler
Medien
##user
eingesetzt
##treter
##uth
##ischof
schle
##itzt
KÃ¼
Stunden
zuf
ehemaligen
##ja
verd
Schule
brach
weder
erreicht
##ance
Fil
Zul
Konzept
Stat
hei
##Ã¶hn
Jose
erreichte
##geln
bew
##inner
##ettbewerb
##frage
See
Union
##80
nord
##uellen
##60
Main
##ganisation
##folger
##Ã¶m
##rang
persÃ¶n
Antragsgegner
##ari
vert
notwend
##.12
lin
##onen
entspr
Osten
##bescheid
Internet
##gelegt
verz
NÃ¤
##richten
##schl
60
##ikation
Wa
##schlieÃŸen
##hebung
##setzt
Thema
Untersuch
lag
Hilfe
##usst
ir
##gebaut
##amte
Fr
##haltung
beru
SÃ¼den
darunter
Har
##wart
MÃ¶glichkeit
dagegen
##zustellen
Westen
##ex
Mitglieder
Sachver
Gu
Stu
##see
gelang
##bruch
##deck
28.
Ern
damal
185
##gefÃ¼hrt
##ong
##Der
gewÃ¤hr
grÃ¶ÃŸten
Wilhelm
arb
23.
2018
trÃ¤gt
##igkeiten
Kammer
Prin
##flÃ¤che
Vorsitzen
##woch
##renzen
Vert
weiÃŸ
Rot
mich
ja
Energie
Dre
1998
##ummer
##verein
MÃ¤nner
##igungs
##Ã¶stlich
Alex
Grundlage
##geschichte
wesent
tatsÃ¤chlich
##liegen
jÃ¼n
Schreiben
##arch
beide
##krÃ¤
##darf
##li
Auffassung
##gliche
Gold
Ihre
Interesse
##iffer
Besuch
##wissenschaft
##inden
##ossen
##ski
##-,
kleine
Blick
##12
##asste
Anwendung
##sb
KÃ¶rper
24.
...
erfolgreich
26.
richt
##lege
##ole
##lern
beschÃ¤ft
##yt
##zeuge
hÃ¤lt
##test
Kreuz
bestÃ¤t
##setzen
##indest
##kom
##seite
Institut
Fer
neun
Comp
##rechtlichen
Nachbar
gez
##italien
hÃ¤ufig
##ommun
-,
knapp
Kloster
##yer
Vertei
##The
mittler
##Ã¶sung
Arbeitnehmer
##stÃ¤ndige
##sburg
##preis
##athol
somit
##wald
##gangs
maÃŸ
##ham
27.
Aller
erschien
##stanz
einigen
Ass
Karr
beispielsweise
Bad
##rakt
##nisse
Aufent
##steil
Dis
nÃ¤chsten
ung
##ietet
StÃ¤d
Antragsteller
##anc
Tem
##wertung
Theater
weiterhin
Liste
Ermitt
stellen
Zeitraum
##etter
Ãœb
dadurch
##Ã¼rt
##oge
##gelassen
##unkten
##bten
auÃŸerdem
errichtet
Produktion
Monate
MaÃŸnahmen
##Ã¼ter
35
Entscheid
Parlam
Auftrag
Ku
##spruchs
##13
vorhanden
##Ã¤te
##omen
##aff
Studien
##mitteln
alte
##ituation
zog
Asy
russ
##jÃ¤hrigen
Archite
Lud
##spart
##off
Verkehrs
Privat
Arbeitgeber
##dingungen
Spe
29.
Ide
Gesund
daran
Pass
##rochen
##mel
minde
##hÃ¶rden
bestand
Schaden
##chter
##ienten
##40
einst
mindestens
anges
##ograf
genannten
entfern
##Ã¶rt
Abschluss
Journal
Nur
dahin
Po
##estag
##Er
##raten
Bran
ra
##gemessen
BeschÃ¤ft
##apan
Frankfurter
##ierenden
Freund
Schwer
priv
Sh
Mor
erwÃ¤
zahlreiche
##stat
Tri
##mee
##langen
##kraft
kamen
##okal
1980
GrÃ¼nden
(18
angef
Con
##wesen
##gut
1970
Sold
##vert
##bank
Wissenschaft
Invest
Tagen
##pe
verÃ¶ffentlicht
gleichen
Sicherheits
Name
Holz
Kopf
mein
Weltkrieg
Heinrich
BrÃ¼
##zentr
Auto
nehmen
##griffen
##17
natÃ¼r
einger
Nacht
Angriff
Feld
##wid
welt
Woche
Zukunft
##Ã¤nz
##warz
Ged
Vereinigten
Roman
lÃ¤nger
##ica
##ese
##altet
Post
erhÃ¶
##ama
Karriere
pl
##andeln
##ses
##ograph
gl
##ichtete
##kirche
On
##oppel
##leger
Druck
##abel
klar
##ochten
Netz
University
Mat
##angs
##iegel
setzte
End
verschiedene
Feuer
starb
Jur
##ymn
Provinz
##rim
gep
##nommen
offiz
##schiff
direkt
KÃ¶ln
##irektor
##hafen
verÃ¶ffentlich
##eien
##streck
jedenfalls
Georg
##rise
##reichend
LÃ¤nder
##Ã¤mlich
jen
Tele
Revision
Album
erster
##iete
Pre
Max
##iam
Hann
##spiele
SchÃ¼ler
Literatur
Projekt
1997
Dieses
Mein
wider
heutigen
anders
Sonder
2,
##.10
##zun
##dien
##iellen
aufgenommen
voraus
[unused_punctuation14]
Nor
##lieben
beantragt
##mitglie
##Ã¤ngen
krit
##chner
##ox
kur
Verbindung
1996
##linge
##omat
##leistung
##rief
geh
##arbeitet
AG
Monaten
ant
Straf
erklÃ¤r
fl
empf
##aup
##uche
##amens
moder
##eiden
##produ
Basis
##med
oben
##gent
nÃ¤mlich
Fernseh
Schloss
letzte
bem
geschlossen
Eigent
##sh
##okument
Allerdings
Kurz
##aktion
schrieb
Do
Bro
hohen
##vangel
##politik
NÃ¤he
erhoben
Kol
mir
##sÃ¤tze
Auss
##Ã¶sen
##gemeinde
Sicherheit
##lÃ¤ren
Trainer
GesprÃ¤
##tels
Gar
ca
##rid
##film
entsprechend
##yd
##reisen
Tal
begrÃ¼ndet
Kant
##mannschaft
##pel
##ativen
erw
franzÃ¶sischen
##roffenen
Regierungs
##scheinlich
##rifft
laut
mÃ¼sse
##ruf
Aufgaben
Mos
##uelle
Haft
bau
##zeiten
Bus
##zentrum
erfolgt
unver
##utzen
##vier
##wiegend
techn
##lig
pol
Ã¤uÃŸer
SÃ¼ddeutsche
##anien
Dach
##iten
mehreren
halten
KÃ¼nstler
##Ã¤ngt
verurteil
engl
Ludwig
spielt
Sache
##asen
##Be
Leistung
##jÃ¤hrige
gefunden
MilitÃ¤r
##etzen
##get
Kunden
##ara
##ime
##halte
BÃ¼rgermeister
italien
PrÃ¤
Augen
32
Angeklag
1994
##di
##gress
Professor
anzu
##16
##rimin
spricht
##over
ro
UnterstÃ¼tz
##ment
##lÃ¤tze
##Ar
##wo
##deckt
Pla
leicht
Â§4
##zur
fÃ¤
Ris
Ausbildung
Firma
##haber
##wechsel
##jet
Bahnhof
geeig
Stellung
##uhr
alt
Text
##denk
genutzt
HÃ¤l
Ã–ff
setzt
schl
Mitt
##ruktur
Robert
zumindest
Dann
solchen
hinsichtlich
Beim
##zugs
##.3
180
Kaiser
absolv
Sicht
##geladen
##wurf
erziel
1960
##wegung
Leiter
##ines
konk
##ivid
ste
Martin
Tre
##innt
1995
Gebur
##denburg
##eichen
Tier
gefÃ¼hrt
vertreten
##yl
Dollar
##onat
III
Mil
regelmÃ¤ÃŸig
folgte
##ymnas
bestimmt
einzelnen
##Ã¤hlen
dritten
##.11
##line
politischen
selten
Zus
HÃ¤lfte
##onds
##uell
##dner
Baum
Bereits
Ã¼berhaupt
Andre
##amer
Pa
angefochten
wissenschaft
Verhalten
##ierungen
Denk
Graf
gesp
FÃ¶rder
amerikanischen
##Aus
##hte
Leistungs
##.-
##zunehmen
inzwischen
Studium
##ppe
verloren
##ammt
LÃ¶
sofort
##ikel
##verl
##kan
Christian
##iew
##isierung
Os
besten
##sÃ¤ch
##Ã¼m
##StG
Interessen
erm
##kampf
##ror
##schungs
eng
##lauben
DDR
Gemeinden
Bor
183
##osoph
Wo
unmittelbar
darin
unterst
##unn
##/9
stÃ¤r
Gestalt
1992
berichtet
Kolle
jeweiligen
##25
verlie
befinden
nimmt
##fÃ¤higkeit
##erseits
##rax
ZPO
Tages
##reitag
Chef
##ision
Russland
Pfarr
##zul
##sprÃ¼che
Einkommen
##ali
##ague
##nier
##weiter
Gruppen
Bundestag
Kern
Schweiz
Schweizer
bedeuten
##lieÃŸt
Umwelt
##heira
##14
gekommen
##Sp
33
Handels
Zwar
Alle
##stoÃŸ
##ament
##sprach
##gÃ¤nger
##ution
Gi
Deb
Zweck
Ap
Ãœbrigen
tragen
Minuten
vorgesehen
keiner
Af
##lÃ¤nder
##eth
##handlungen
##legten
Personal
Zuge
##echnet
zug
##roll
Beweis
Vertra
Programm
Miss
zeigen
Bruder
##ward
##ffer
##alz
##gÃ¼t
Schon
verk
Wirkung
##leg
Stutt
##fan
##herap
##serv
##orben
verpflichtet
Reise
##lock
anderer
Norm
##ima
km
Sied
Air
##temberg
##inge
Politiker
Wind
Erm
Redakteur
##eten
##barung
##zeichen
zei
##Mit
enthalten
BÃ¼r
VermÃ¶gen
##werke
##zeugen
##park
##schinen
##oper
##Ã¶lf
##wen
tun
Umfang
##70
vergleich
erreichen
maÃŸgeb
##Ã¼ge
Ausland
Typ
par
Antragstellerin
##ozial
##versicherung
ausdrÃ¼ck
##Ã¶rm
Inst
80
dÃ¼rfen
##ise
bald
Asyl
Ã¶sterreich
Sieg
##ufe
##rÃ¤cht
unabhÃ¤ng
##unternehmen
70
##dacht
Oper
##erner
Mittwoch
##ona
Reihe
Beurteil
gebracht
Com
##klich
##rep
##werbe
##nt
ausschlieÃŸlich
Elekt
##Ã¤her
##unsch
bin
##iens
grÃ¶ÃŸte
Lo
##ile
##seit
##kap
Einsch
CDU
##ielleicht
Hen
UnterstÃ¼tzung
##teile
ausgefÃ¼hrt
##streit
##ministerium
aufzu
norm
Nachfolger
1993
beste
elekt
##gement
Far
##ool
ursprÃ¼nglich
kehr
##auern
##spekt
Vo
##iment
Weltmeister
##pft
SchÃ¤
Mer
Ott
##lingen
Betracht
enthÃ¤lt
Verhandlung
Ton
##techn
verhinder
##digungs
##75
Orts
##iegen
Stift
Ball
FÃ¤llen
Ã¤lter
Leip
Wein
Start
Bot
##JÃ¤hr
##flug
##bin
Tats
1991
FrÃ¼h
##kund
EuropÃ¤ischen
Industrie
##zin
jÃ¤hr
Rich
zuge
GrÃ¶
Beteiligten
1950
Macht
Â§5
produz
##ielle
soweit
China
##zahlen
##rÃ¼ck
eigentlich
einzige
sozi
##istik
Montag
Count
##recher
##Ã¶pf
##ieter
anschlieÃŸend
Motor
##ademie
##acher
##Ber
##werber
##frau
fiel
hohe
##uck
Freitag
##issenschaften
zerst
##anzler
##fon
##by
Tarif
01
##har
vorliegenden
lau
Mel
Fragen
bringen
vorher
verletzt
Brand
##ae
##auch
As
31
Aufgabe
internationalen
Ord
mÃ¼nd
##Stand
Unternehmens
Pres
Rang
PrÃ¼fung
organis
hinzu
0,
Les
##wjet
##gart
hal
##bÃ¼rger
exist
##berecht
App
##wohnern
##zÃ¼glich
entschieden
Soldaten
neuer
##stÃ¤nden
Beigeladen
Strecke
##zut
##reibung
##achtet
erforderlich
##gebung
##losen
1989
zent
##bÃ¼
##Welt
##ada
##4.
besuchte
welches
Linie
Dazu
bislang
##jen
##atik
ak
##ots
##iente
##mut
Bestand
##aly
behaup
ehemalige
##Ã¼sseld
##"-
##aill
entwickelt
GrÃ¼nde
bezeich
Disk
verf
Wegen
Lang
45
Fel
##ierter
land
##anlage
Sprache
Richter
Anschluss
##osen
Heraus
##ames
Abend
ergeben
Armee
##Ã¼mer
Dav
##strecke
erklÃ¤rte
Bundesregierung
Liga
##eilen
frÃ¼heren
##ffend
Imm
##wGO
Sachsen
Verkauf
streit
##spielen
##Ã¤hrung
Aufl
##how
##arte
##2.
Grenze
##lehr
##SU
##win
##holt
Maria
##funk
##rank
Fluss
Super
Senats
##ollen
##erv
BVerwG
##dÃ¼r
##ane
##wahr
##elten
GG
##ringt
Aktien
spielen
Ir
is
##lanzen
##langt
##wind
##gegeben
Teile
##richtungen
Landtag
Publik
##orte
Opfer
folgende
verfol
Kritik
##kra
##tegr
##riech
##Al
Baden
36
##alif
Berufs
Zin
##zy
##West
##ierende
##ktor
##fÃ¼hrungen
gefÃ¤hr
wenige
##hnung
##reiber
DÃ¼sseld
TV
##gelÃ¶st
Trotz
obwohl
##weile
Spielen
##olge
Abgeord
##raxis
Stamm
##leiter
Ul
Situation
Serie
##De
##rechte
Heute
Col
Hor
dro
Ist
##stellungs
Licht
Ersten
Reichs
sah
##stab
##mo
Schluss
VwGO
vollstÃ¤ndig
gesamten
Kommission
##digte
##solvenz
Einfluss
##erischen
Vertreter
Bezeichnung
Arbeiten
angemessen
kompl
erkenn
umfasst
Ã„r
##rÃ¤nkt
##fÃ¼hrten
##besser
##Ã¼cksichtigung
Fig
Hauptstadt
entfernt
##aterial
Dauer
politische
##struktur
Kab
##45
##rhein
Verband
##regel
Just
med
Ang
##denten
damaligen
begrÃ¼n
Donner
##sa
##mund
##alifiz
##ielten
indem
##anger
##gÃ¼lt
##ildet
Spiele
WM
Bef
TÃ¼r
##3.
hingegen
Volk
Meer
Wohnung
##rige
offenbar
##gebÃ¤ude
zwÃ¶lf
##heiratet
LÃ¤ndern
Gesetzes
Sing
Gr
##ley
##leistungen
StÃ¼ck
##ton
entspricht
##1)
##rÃ¤gen
##band
jede
gesamte
langen
##:2
##rags
##hlen
##jekte
##riff
##ausschuss
##statt
Gewinn
Gefahr
##Ã¤dchen
bietet
##dam
Landgericht
bestimmten
Dro
##90
Weil
Besonder
##dro
Sand
klass
Lager
##allel
##Se
Insolvenz
##redit
##ession
##ungsverfahren
##anspruch
##98
##gemeinschaft
Rede
selben
Rein
beteiligt
verÃ¶ffentlichte
Informationen
posit
Arten
90
Sub
##ikal
Dreh
##utlich
##uchten
##Ã¶ffentlich
Zentrum
Wettbewerb
stammt
##umm
Verlag
Mad
benannt
betrÃ¤gt
Museum
##aille
gute
##dessen
##zirks
Test
veran
##orgungs
treffen
##schafter
Dres
Erfahr
##respon
vorlÃ¤uf
##prÃ¼fung
##westen
zugleich
##ologischen
##gefÃ¤hr
Bach
wiederum
britischen
##zif
##weist
erinn
##volution
gebe
Vide
Hintergrund
##krÃ¤fte
##reib
sagen
Viele
##uster
##reitet
arbeiten
Wal
Pop
##ola
DarÃ¼ber
bekommen
Strom
bilden
erle
prom
erkennen
##macht
##inal
mittel
##nÃ¼
anerk
##ios
welcher
Ander
erwÃ¤hnt
Japan
du
Noch
##Ã¼rttemberg
Partner
##diger
##fÃ¶rm
"(
Syn
grÃ¼ndete
##nam
Histor
Konkur
Anforderungen
##asil
Mc
letzt
34
schloss
stammen
Anteil
dÃ¼rfte
ausger
##lassung
gebaut
Prem
Renten
Truppen
Del
Republik
##ertig
Hinblick
rÃ¶m
Stuttgart
erÃ¶ffnet
##gruppen
aktiv
##dungs
##istisch
Regen
stra
Stil
Punkt
##denken
##stÃ¤ndnis
##Ab
##3)
Angebot
bekannte
England
MÃ¼nchner
##aters
Aufgrund
##weisung
##selben
##bli
Fa
##raucht
##achst
##rael
brachte
erschienen
##richter
##spro
##Ã¤nden
TÃ¼rk
Werke
betrieb
europÃ¤ischen
##wendungen
di
##24
einzu
William
##ragen
gehalten
##wirkung
##:0
Ã–ffent
##"),
##bestand
Ausnahme
rel
##abrik
Chem
##que
Donnerstag
Pri
Div
Verpflicht
##35
##ziger
##igungen
##dens
vÃ¶
Dom
Fen
##Ã¤hlte
Ã¼bernommen
##runde
##linik
38
Kenntnis
Olympischen
##imeter
vielmehr
Hal
Ep
Empf
BGH
##laubt
mussten
##rak
##.199
##ferenz
junge
gesetzlichen
Nachrichten
##staaten
Inhalt
##ehmigung
Pflicht
Offen
##finale
bisherigen
##ochen
Johannes
kont
Dienstag
Weitere
##gebracht
Â§Â§
##schech
League
##antrag
##itte
##own
##iller
##reite
Position
##rab
beginnt
Verordnung
##Ã¼gel
##mes
##derungen
Nun
Gesicht
##vorsitzen
Kapital
Nutzung
##arbeits
Ernst
zusÃ¤tzlich
##flÃ¤chen
##78
##mand
()
jedem
gleichzeitig
500
festgestellt
BehÃ¶rden
##ash
##leitung
Beamten
SZ
##istenz
uner
##ufer
verantwort
##staur
typ
kathol
Bilder
entsprechenden
weiterer
##vo
##nern
vorzu
##DP
sozial
erfÃ¼llt
##2)
##Ã¤ne
##tell
umfassen
zugrund
Doppel
Verantwort
##ordnungs
Bischof
Nation
##mittelt
sogenannten
##ome
Ehren
##gemÃ¤ÃŸ
groÃŸer
Bundesver
SG
1988
##ils
##ena
Ã¶ffentlich
##heben
##Ã¤ische
##ish
##eis
##ike
Veranstalt
##Reg
Pe
##Mar
Forschungs
##lecht
zunehmen
legte
verlassen
Pil
nÃ¤her
Gesundheits
##komm
bl
sÃ¼dlich
David
Wechsel
##pol
Organ
##Re
##ight
##ta
##ateg
##zeitung
##spe
##7.
##zÃ¼ge
spÃ¤teren
zweit
Herbst
Sinn
##umb
##brit
sod
hielt
absolvierte
franzÃ¶sische
Modell
##achung
auÃŸerhalb
Szen
spezie
##formen
zusÃ¤tz
Klaus
Â§6
Jan
##kunden
kauf
##zwei
Gewalt
Star
Ansicht
##urg
Ortsteil
Annahme
Stellen
[unused_punctuation0]
besitzt
Viz
##gemeine
FG
Antragsgegnerin
ganze
versucht
Umsatz
berÃ¼cksichtigen
##republik
##ki
Psych
##fÃ¤lle
##23
##immung
##11
##erweise
entwickelte
Ruhe
Kindern
Frieden
bedeutet
##legte
abgeschlossen
interess
##amb
##agd
Presse
befand
bildet
##gien
##zert
##mÃ¤cht
000
##zahlung
##gton
zulÃ¤ssig
##lad
Pet
daraus
##azz
Flughafen
gesehen
Verbrauch
##anne
##riebe
##ftigen
stets
lebt
##auftrag
Vertrags
Sim
##cks
##aub
GrÃ¼ndung
##4)
Krankenhaus
##ischem
Zeiten
##ckey
aut
fal
BVerfG
rÃ¼ck
frÃ¼hen
nÃ¶rdlich
Gesetzgeber
##renzt
jungen
Grie
zufolge
##plant
zahlen
Waffen
Alexander
FlÃ¤che
Top
Polen
##view
se
##schÃ¤
paar
##tur
##agn
##6.
wirklich
##fahrer
prakt
Behandlung
belie
Eisenbahn
##wander
##usch
Hannover
Hinweis
To
QualitÃ¤t
##ail
##durch
##werte
Kandid
##ameister
MÃ¤dchen
UmstÃ¤nde
##kunde
##ival
##gner
genÃ¼
entsprechende
Punkte
##spl
##.2013
unge
BÃ¶
Krank
Brit
##illa
eingesch
##abl
##Ein
haupt
##1-
##za
##geschÃ¤ft
weg
reich
##gels
heira
Verwendung
##lose
fanden
##aust
##Ã¤hrt
##sem
##spf
VergÃ¼t
##bauten
beruht
Rechte
##respondent
##Kon
Entwick
ausdrÃ¼cklich
##5.
##uern
sÃ¤
Ã„nderung
Zeugen
prof
Alters
##lÃ¤ndischen
sach
Leitung
##6)
Ã¼brigen
durchgefÃ¼hrt
erhÃ¤lt
Falle
bereit
##va
folgen
Var
Wege
Berufungs
PrÃ¤sidenten
Salz
##EG
Aufnahme
##stud
##prÃ¤sident
##ffel
Saint
scheint
Schlacht
##falen
##7)
Zusammenarbeit
erscheint
Exper
1972
Auslegung
##.06
Stad
Gesell
Ã¼bertragen
##ahnen
Leipzig
DÃ¼sseldorf
Lehrer
Zweifel
##ante
##ware
gewonnen
##bliothe
angenommen
beein
Kamer
geplan
endgÃ¼lt
##versorgung
Ã¼berra
Gegensatz
##fried
Hoff
verkauft
Parlament
City
zugelassen
KÃ¶nigs
##mark
jÃ¼d
verheiratet
##hÃ¤user
##rechtliche
##pa
wissen
Tro
##kretÃ¤r
Pflege
##Urt
Probleme
Organisation
reag
kehrte
Medizin
Anzahl
SpÃ¤ter
##str
daraufhin
getroffen
arbeitet
Unfall
##rÃ¼fen
vÃ¶llig
berufen
IV
##.07
##ernen
Deutschlands
##irn
##chester
##forderung
Anton
derart
##.2014
gegrÃ¼n
verlÃ¤
##iversitÃ¤t
SchlieÃŸlich
##altung
zustÃ¤ndig
##ktions
entstehen
allgemeinen
##abt
ernannt
##kont
bestimmte
Jetzt
GÃ¶t
##grenze
Philipp
##ymb
Gre
3,
##ymnasium
GesprÃ¤ch
Herren
Vorschrift
neues
##gesetzes
beschÃ¤ftigt
gra
Schlag
##wegs
schrift
##insel
##sein
County
BÃ¶r
Feststellung
Tim
##abil
##kord
Ã¼berwiegend
Mensch
zivil
Bron
##vention
##ones
Bill
FÃ¼hrung
##ziehungs
##derte
allgemein
tradition
##Ã¶ren
##sache
Monat
##alition
##Ã¼ten
##britann
##sser
sprechen
sprach
##ene
##Vor
Trum
Viertel
##ake
BÃ¼cher
Leute
Laut
##anische
zugrunde
Prot
Einwohnern
zahlreichen
GlÃ¼ck
[unused_punctuation5]
diente
##mens
Karls
fahr
1987
Hessen
sub
Insgesamt
##ffekt
##sprache
Silber
##go
vermutlich
##abend
Tex
Grenz
##cc
tÃ¼rk
natÃ¼rlich
##laut
Exp
##gern
pass
individ
ausgeschlossen
verg
Det
##.03
vern
##strÃ¤ger
##zeugt
Auswahl
SÃ¤nger
Banken
##mm
Carl
Studenten
Artikel
Fassung
betrach
##erei
1933
Rie
Arzt
Regelungen
griech
Samstag
##laubnis
Wagen
Spanien
##ala
Dah
mag
##28
##olden
##pfel
##kÃ¤
##wirkungen
##anlagen
bestÃ¤tigt
##fÃ¼ll
qualifiz
KÃ¼ndigung
##sÃ¤
Han
##famil
##Ã¤nglich
##verfahrens
geschaffen
LÃ¤nge
##geschoss
##rechtlich
##strahl
GÃ¤
besondere
##SA
##Ã¤nderung
BehÃ¶rde
##Che
jedes
Fe
##echnung
Anlagen
Runde
Ã¤lte
frÃ¼h
ersetzt
Geburt
##.2012
Drit
LÃ¼
Erkenntnis
##ith
Themen
Verwaltung
GroÃŸbritann
Soweit
verurteilt
Wesent
Holl
Champ
Stadtteil
Best
beschrieben
##programm
##lÃ¶
##38
##weich
##ologische
37
##bildungs
300
AnschlieÃŸend
##stÃ¤tte
##ouver
bele
gewinnen
hol
Konfl
Pr
Dist
weiteres
fehlt
##gin
##ickt
prÃ¤sent
dient
Fahrzeug
Rud
PrÃ¼f
Urteils
##ÃŸt
##ziplin
Richard
RÃ¼ckkehr
##9.
##iefer
##.04
Mosk
Vorschriften
##stimmungen
poln
##kammer
##igkeits
Pflanzen
wenigen
vielleicht
Grab
##aur
Relig
angeboten
Bundesliga
1930
Bekannt
##peratur
##Bahn
Verfassungs
##Ge
##/8
##rechnung
Stimmen
weltweit
##halle
Darstellung
1984
TÃ¼rkei
##hafte
##ries
beleg
##Wir
relativ
##aben
1978
##klÃ¤rung
##trages
##lehen
Hart
Otto
##beit
##Ã¤rzt
betrieben
Vergangen
1986
ErwÃ¤
Gutachten
##zahlt
militÃ¤r
##sÃ¤chlich
##sichts
##tlichen
1985
Kre
##lÃ¤ub
##gehr
Gewerbe
Wehr
mittlerweile
Ress
International
Philosoph
Richtlinie
jÃ¼ng
##alsozial
irgend
##Ã¶rung
1920
##65
Club
##zum
##hnte
##gewÃ¶hn
##schauer
VerÃ¶ffentlich
##ict
##teils
##ftige
mÃ¼ndlichen
Finale
schwier
verlor
##lichkeiten
Charakter
##adrat
rech
Beurteilung
##ld
##male
##Ã¼st
rei
##hington
##itzer
Matt
Vereins
richtig
##ical
ersichtlich
dauer
##andt
Deshalb
GrÃ¼nen
##linien
Kirch
##32
1974
Wolfgang
1975
Struktur
##ini
Fo
Garten
##)"
Rest
anderes
##maÃŸnahmen
ru
Train
##grÃ¼nde
##schlÃ¤ge
Papst
##steiger
150
stieg
##eintrÃ¤cht
##gestalt
##reund
lÃ¤ng
ausgezeichnet
SÃ¤
Pan
##unsten
Lou
Wall
Staatsanwalt
##aufnahme
Hit
heiratete
zurÃ¼ckge
zutre
##orfen
galt
##ksamkeit
Trans
##48
Beide
Trump
##itionen
##werden
##Ã¤tzung
##oment
Hu
1938
weist
##SV
Sprach
kennen
erzÃ¤hlt
##orgt
##itar
1968
Ke
##ney
##fred
##.09
Firmen
Gegenstand
Konzern
Ã¶ffentliche
##stete
dur
Standard
##ikanischen
##zieht
##ular
Auft
##isierte
##--
Glas
##wissenschaften
Angel
hieÃŸ
Qualif
Turm
##itiat
Kron
solcher
AusfÃ¼hrungen
Blut
Colle
Win
##").
##way
amerikanische
##95
##punkte
##mot
##Ges
##9)
##itsch
schreibt
##ehrt
Kontakt
##bi
Fahrer
MÃ¼ller
##hauses
Denkmal
Sem
Leit
kosten
fÃ¤llt
##22
##baut
Reform
Str
##lehnt
##waff
##vertreten
Griechen
##dt
##worben
Rand
Â§8
##partem
weitgehend
wahrscheinlich
##far
Terror
Patienten
##sum
##geschrieben
##97
Joseph
res
stÃ¤rker
##ause
Aktiv
SchÃ¶n
Dat
Mess
mÃ¶chte
zurÃ¼ckzu
##gungs
##.05
Inner
##reig
##tent
Bon
##fragen
herr
##iers
Rennen
Bezirks
angefochtenen
##Ã¤h
Versicherungs
##Ã¤mpfen
Ersatz
##fordert
##bs
##nei
Ach
Nik
##achtung
##hofs
##wÃ¤rts
Allgemeinen
##kor
##fecht
Ehefrau
Schwarz
##.2011
##itur
Klasse
##gesprochen
##ikaner
Vorsitzender
##.02
Gas
lauf
unzu
##ester
##erien
begonnen
begl
vorbei
eindeut
##arzt
Autob
Herrschaft
at
Versorgung
##eind
Ausdruck
1940
angegeben
guten
Ca
StÃ¤dte
##ago
##chmal
Tiere
Widerspruch
##Ã¼rn
Vergangenheit
##beg
##garten
Bem
benÃ¶t
##26
Regisse
Rock
Ã–l
Washington
##westlich
##arbeitung
##chem
Fehler
betreffen
Hochschule
Hotel
##zÃ¤hl
Vom
Wiener
ausreichen
1982
Ros
international
Versorgungs
Zahlung
psych
##WÃ¼rttemberg
Direktor
##lers
Schauspieler
beruf
steuer
Ã–ffentlichkeit
##fÃ¼hrte
monat
1983
erzielte
Na
##cel
Bla
Schmid
funktion
Maschinen
##ano
eingestellt
tÃ¤
##irm
grÃ¶ÃŸer
zeigte
Einige
einf
durchschnitt
##ya
##hÃ¶he
men
mehrfach
1944
##fig
stell
unabhÃ¤ngig
geschrieben
BSG
Angeklagten
Arbeiter
Spitzen
##67
Termin
Zivil
ermÃ¶glich
##trem
##Ã¶rdert
kommenden
erstre
##stu
Todes
Zustand
Merkel
##bus
Wel
##stattung
Brief
##tragung
1939
##odell
Lab
Obwohl
berÃ¼cksichtigt
##verwaltung
Chor
##uert
bekam
Vollstreck
##hoch
Justiz
GroÃŸbritannien
WÃ¼r
##Ã¤nn
##gÃ¤nge
GelÃ¤nde
Ã¤hnlich
##Weltmeister
zentr
##Stra
##RW
##indungen
verfÃ¼gt
Fenster
Bericht
gericht
##istan
##JÃ¤hrige
Beitrag
##zog
Verbr
zit
##ford
##holz
Zinsen
Gewicht
Erb
wichtige
Koalition
Kop
##ifferenz
##imal
##fil
Umgebung
##.).
##rÃ¤ume
##UniversitÃ¤t
sogenannte
##Ã¼h
##.08
Stock
##atein
##Ã¤dt
1969
ausgeb
dritte
Ereig
Anordnung
hierzu
schÃ¶n
Miet
##onach
angesehen
Sig
Moder
he
Beschl
Bauern
##fÃ¼hl
##digen
##versammlung
Minde
##alog
1971
##hÃ¶rigen
##eige
##Nr
Alten
##ranken
Pfer
trifft
Bebau
Standort
ernst
1973
##ktiv
angesichts
Dokument
1979
##fertigt
teilte
Zuf
grÃ¶ÃŸere
##err
##une
Franc
Hig
Dresden
##eton
##stritten
Renn
##54
##68
Wol
entdeckt
geeignet
##onie
##law
Hermann
Geheim
GrÃ¶ÃŸe
festge
wichtigsten
George
##sweise
##endung
RÃ¶
Metho
1976
Leg
##afft
##swahl
##fÃ¤hig
##serie
FlÃ¼chtlinge
##iziert
pre
Zulassung
##ziehungen
##gert
##.2010
Liebe
verantwortlich
##/200
Kra
##blatt
Kateg
Technik
geringer
Dipl
##Bundes
##Le
Rech
##Ã¤tze
##ville
Bud
##rick
wonach
gezeigt
betrug
##ritz
Bildung
##stant
##gungen
Jung
Akten
##hor
Schu
Frist
##nehmung
besonderen
Schwester
##vollmÃ¤cht
48
##ruhe
##pfen
##ico
vorgenommen
##afr
##liefer
Schulen
Zentral
##haften
##andelte
wÃ¤ren
chines
Kanton
sÃ¤mt
tritt
##alifor
Ã¶stlich
Teilnehmer
##amerikanischer
##zusetzen
##do
Zahlen
##Ã¤ume
##jahres
##Jahrhundert
Hall
Beigeladenen
Wesentlichen
##ros
##werks
Ermessen
##Ã¤ndler
##mitglied
##34
jem
Instrum
Vorhaben
##21
##wachsen
##zufÃ¼hren
##Ã¤dag
##Kl
inform
jÃ¤hrlich
privaten
##otte
ZÃ¼r
Schles
russischen
##VO
Kin
Entscheidungen
WeiÃŸ
Jahrzehn
##amerikanischen
beob
Ablauf
Geist
wor
Flor
##weder
prÃ¤
39
Blatt
##landes
##deutsch
Andreas
##Ã¼ste
GeschÃ¤ftsfÃ¼hrer
Landwirtschaft
##herapie
Fund
jÃ¼nger
gingen
##rÃ¤t
mÃ¶glicherweise
SÃ¶
ziehen
Albert
wes
evangel
FrÃ¼hjahr
Ster
##aliforn
ErklÃ¤rung
##ulen
1981
##sÃ¤tzen
Prom
1977
##eck
##werten
Aussage
elf
##polit
Verlauf
Gottes
Web
grÃ¶ÃŸeren
Idee
hauptsÃ¤chlich
##ux
##ida
##ordnet
Lok
Kontrolle
UN
Jer
medizin
kleiner
VorgÃ¤nger
Verletzung
##Ã¶tz
##eisen
wohn
Gegner
##widrig
erkennbar
westlich
##bezogen
##jenigen
Erwerb
##,00
Metern
##igem
##bezirk
Abschnitt
Grundsatz
Juden
Real
hil
Hause
##Ã¤rm
##seits
KÃ¤
##einer
##fiel
tran
Zugang
Kollegen
bas
stellvertreten
Ker
ausreichend
##fehler
##lÃ¤tter
Ã¼bersch
Zun
Sant
##Ã¶ffnung
Verlust
verhindern
##spunkte
178
##ologe
##ositionen
##fÃ¼hren
[unused_punctuation6]
##behÃ¶rde
##eiert
##TV
ff
##Ã¤ngnis
solle
##scheidet
zÃ¤hlt
lebte
##33
Kla
erwarten
Orig
Herzog
##nimmt
##ftet
Tradition
Bestimmung
Brun
schwar
##LG
Berat
##zte
##StBl
KÃ¶nigreich
##rennt
##hielten
##74
Tabe
Verfol
Los
##schine
1946
Praxis
##64
Arm
##sprung
##vel
Ast
##72
Sum
warum
leich
folgten
##netz
##ichert
##beschluss
##schulen
promov
##uro
##gewicht
##uther
400
##spolitik
Entscheidungs
Einen
##Auf
##strafe
Grenzen
##erkennung
##ary
Lied
Akademie
##ata
setzen
##bliothek
##ulation
dire
##klus
Bezirk
begehr
##ugen
##geschlagen
bestehenden
##wenden
##wÃ¤sser
kor
Hom
Glauben
Widerspruchs
##.2015
gehÃ¶rten
##industrie
defin
##ieden
sodass
##gest
Verz
Zweit
##inett
einheit
durchaus
Rum
bringt
##iede
##hi
einschlieÃŸlich
Rett
##liefert
##endes
##achter
##freiheit
Kredit
Walter
DurchfÃ¼hrung
Mehrheit
Ag
Get
Fernsehen
##Ã¤tzen
GÃ¼ter
##stehenden
Jean
Punkten
##auber
##any
NÃ¼rn
fÃ¼n
fr
UnabhÃ¤ng
offiziell
##Bo
##schte
Ausgleich
geprÃ¤gt
konkreten
ganzen
##Land
Josef
brauch
##eitete
entlang
zer
##musik
gesetzt
##rau
reicht
Computer
gemeinsamen
Betrag
schaffen
verstÃ¤r
Samm
disk
##row
##ymbol
TrÃ¤ger
##wak
##mon
Krieges
##siehe
44
Daher
notwendig
##omot
##namen
Kr
1967
gerecht
##azin
Rechtsanwalt
verh
##auen
##klar
Sprecher
Demokrat
##beck
Ac
orient
##Ã¶ne
65
##garn
Jazz
Laufe
Arn
##eide
##forschung
Zuschauer
Opp
##wirken
BStBl
fertig
EinfÃ¼hrung
Organis
Umstand
##heimer
reduz
##prozess
angegriffen
##ichteten
##.2009
EStG
Auseinander
##29
1965
##ieÃŸen
##kirchen
##ble
verfassungs
historischen
##nee
Jul
##klasse
Hamburger
to
1964
Kommand
komp
Bal
zerstÃ¶rt
Einrichtung
##versicher
Turnier
##arischen
##ace
Mand
##immel
##mat
bein
##etzten
scheiter
##Pf
engag
Erlass
dienen
##oth
Feststellungen
##irche
trotzdem
unterstÃ¼tzt
NRW
##ba
erwei
Stern
##renn
##reform
##union
verp
##upp
Hilfs
##imme
fe
##astrop
##Ã¼ssen
kÃ¼nftig
##Dezember
##instanz
Restaur
##greifen
##vertei
Entgelt
1966
Nordrhein
Cent
TÃ¤tig
Darauf
##III
Tatsachen
##gers
##com
##lands
belegte
Arg
##Westfalen
plan
Fischer
55
wesentlich
Verteidigung
Weihn
##zeichnungen
ident
Rechnung
mel
Ank
Tom
James
##ican
##ikations
nationalen
##73
Staffel
Amerika
NS
dennoch
Kas
##gram
##Urteil
Rob
Ãœbernahme
Rundfunk
Bre
Bew
Phys
Halle
Beteiligung
nunmehr
Erinner
Bedingungen
Lux
blo
##sequ
HÃ¶r
##omie
Vorstand
Bundesrepublik
##ita
geplant
##DA
##neter
bay
##Ã¼hle
##bek
internationale
EigentÃ¼mer
##finden
Inn
Belast
niedr
##usern
erwartet
ausgegangen
##liste
gehabt
steigen
Islam
Namens
Frem
Wissen
##press
Anlass
##Ã¤hler
##kÃ¼nfte
Nummer
neg
##wirt
Fahrzeuge
##ric
1948
vorliegend
Job
GroÃŸen
Anhalt
Besucher
Grad
##bauen
Ausgang
##Juni
Wen
Song
Version
Gab
##MÃ¤rz
Rh
Publikum
##76
erscheinen
nutzen
opt
Wh
##ato
frÃ¼here
Bom
Essen
Darlehen
Gewerk
gere
Autom
##lingt
Urlaub
schweren
Durchschnitt
unbegrÃ¼ndet
max
##Unter
wollten
Statt
verbr
##arts
gespielt
1962
##ynam
Risiko
VI
AnsprÃ¼che
##sucht
Wild
vereinbar
##lings
Offiz
fÃ¼hl
gering
Gattung
##En
Ehr
erstes
##verbot
umfang
britische
kommun
geboten
verlieÃŸ
##bis
staatlichen
genug
verlÃ¤uft
##ritor
##orten
1961
Journalisten
[unused_punctuation17]
##cl
Morgen
Award
##stimmen
Ritter
##hemat
italienischen
Verpflichtung
ergÃ¤n
gesagt
##windigkeit
Interview
##Das
Bundeswehr
##ams
1963
##ssel
Waren
GeschÃ¤
1958
Fac
Hafen
##sekretÃ¤r
betroffen
##Ã¶tet
Vielmehr
wirkte
Insbesondere
##Ã¼rgen
##Ch
Rel
Schriftsteller
aktuellen
FÃ¼nf
4,
##deutschen
##Ã¤st
##Chef
##cy
##Komm
##izei
Online
Kurs
##ssatz
TÃ¤ter
Radio
Eich
einzelne
##ional
##ologen
Haushalts
##ungsplan
erinnert
hinreichend
##iber
Zeitschrift
Gran
Sto
Angst
##dienste
##spunkt
##Pl
Schwar
Anh
fra
standen
75
Moskau
##istin
Foto
##icken
##leiben
ehemaliger
##riester
##27
Wohl
1952
Cor
##ancen
Erzb
##ftware
##36
##tliche
##wÃ¤l
Herkunft
##car
##.4
CSU
##kohol
fallen
##dy
bezogen
OVG
##emente
heim
Versuch
Daneben
##wood
##39
Komment
Ergebnisse
Dpartem
Unternehmer
wolle
##weite
Camp
##arkt
Untersuchung
Klub
Wachst
##gesp
##orth
Schritt
sozialen
##trags
1000
Nah
##Ã¼nden
Spielzeit
##ration
Brasil
ehr
##gesetzten
Bremen
1943
Zeichen
FDP
##wertet
schul
##hls
##betrag
Wirk
##SC
Immobil
##din
Minder
wuchs
abger
van
##verkehrs
Teilen
Diskuss
##Ã¤nen
berichtete
Anna
sinn
beschlossen
##rete
##hagen
gesund
Brem
Wand
Sar
##Ne
##finanz
abgelehnt
vorÃ¼ber
##hlet
##bedingungen
Studie
Aufhebung
Jak
##organisation
##sorge
entweder
belegt
VerstoÃŸ
##eligi
Schweden
eingefÃ¼hrt
gÃ¼nst
##spar
unterb
##ringen
##dingt
tatsÃ¤chlichen
lebten
rein
##bra
1949
Sex
##komp
##schÃ¼t
vertei
nÃ¶t
##anb
##gas
##enter
Dra
##ausend
##handlungs
geÃ¤ndert
##ieur
offensichtlich
DafÃ¼r
##reif
bewaff
##ij
HÃ¶hen
verlÃ¤nger
German
##.2008
##ua
Jac
##teilen
stÃ¤ndig
##arl
beendete
##po
##sicher
leitete
untersch
geblieben
hÃ¶chsten
##gesell
erheblich
Vorbringen
##ited
##iti
42
##Januar
##zo
##Te
My
parallel
##Mai
##gliedert
##akten
(200
gezogen
##funktion
College
Gal
erworben
##ibel
##orfer
mensch
Hum
bekannten
mÃ¶glichst
on
##Ã¼ssel
##gestaltung
##stÃ¤r
##ender
##ps
beeinfl
Autoren
rechten
Veran
##staats
##antwor
Wortlaut
Flucht
##zeugung
Paar
1941
Analy
##Ã¶stlichen
Vir
##anad
##utzung
##oben
vorgetragen
MÃ¶
##zenz
erfolgen
verstehen
darum
##stock
##bereit
schwed
##schef
meine
wachsen
1956
##kehrt
Mord
##meter
##plÃ¤tze
##anzig
Rd
hel
erwarb
##anen
Verbraucher
##aun
##geleitet
##lowak
1942
##71
##96
##steigen
Konzert
Video
##ook
##reiter
##fÃ¤llen
Meisterschaft
letztlich
##sm
lÃ¤uft
##rollen
##agement
nennt
pf
tief
##ics
Eingriff
Stefan
##gerecht
intens
Sowjet
Einheit
##uliert
Quart
##Ã¤chs
Produkt
unsere
##mÃ¶gen
gleichnam
heutige
##tegie
MÃ¼nster
##Ã¤nderungen
verliehen
##Meter
mÃ¼ssten
zieht
##ZR
wies
##hÃ¶hung
LÃ¶sung
Schriftsatz
berecht
dre
Material
##bart
##usion
Mobil
BÃ¼hne
##tend
Altern
unbek
##stern
UmstÃ¤nden
##abe
##93
Niederlan
Brandenburg
##DF
##rÃ¼ft
Ressort
1959
Aktion
##abeth
Jack
Stahl
##chst
Stiftung
##empl
Ã¶rt
46
weshalb
##hneh
Massen
Mex
aust
##krit
##itiative
Forschung
##Es
##hnehin
Bonn
Bildungs
##ente
##BA
ausgehen
Spitze
links
##agentur
trug
Friedhof
Trin
bieten
Schuld
Polit
Sammlung
Wur
Ganz
Hon
mater
Kindes
Philosophie
##Ã¼cht
KrÃ¤
##Ã¤hlten
Regisseur
##Ã¶rderung
##eral
PersÃ¶n
Cal
preuÃŸ
##ralien
Einzelfall
Abitur
HÃ¤user
##icks
Ja
letzter
Op
1957
Champions
##absicht
lok
##sper
Schwier
##digten
gerne
##fiz
##merk
mÃ¶glichen
##Or
ph
Mass
Parlaments
##leisch
aufgehoben
##92
objekt
Sm
##itÃ¤ts
Kapit
Sonnen
zÃ¤hlen
##Ã¼hm
Vereinbarung
School
nahezu
Antragstellers
Thr
##kÃ¼ndigt
##entwicklung
##cup
ehe
Kal
Roy
Bu
Abteilung
##otten
zulÃ¤ss
##baum
Teilnahme
##lant
Chance
mass
Absatz
ausgetragen
Zeich
fÃ¼hrten
Ann
linken
Ukra
Tenn
Ruf
blieben
bekom
##standes
Quadrat
##lanz
westlichen
##ordin
##gentin
Ans
Naturschutz
##alisierung
ZR
Gelegen
kultur
##iedlung
##erie
FlÃ¤chen
##dauer
Mindest
##wÃ¼rdig
Kompon
Kanzler
forderte
Spezial
breit
##aku
##stÃ¶
##kommt
##mittag
##annter
##gal
##eicher
Aufenthalt
wirtschaftliche
1947
##brauch
Louis
Lohn
Besatz
zutreffend
1955
##bericht
##grundlage
Cast
erfahren
##retung
Quellen
Ausstellung
##handel
Israel
##leit
##46
Tore
##dels
##etzungen
Klima
##ois
Feuerwehr
diver
##nitz
##Ã¼gen
nÃ¤chste
##55
##wider
Vortrag
FÃ¶rderung
1953
umstritten
##barer
Hersteller
bestanden
dargestellt
##bring
Jes
Kongress
Wunsch
##liegenden
##wirk
Immer
Anwalt
mitge
1954
zeich
auÃŸen
##schm
endete
Mik
wid
rechtlichen
meint
##Ã¼bung
ZÃ¼rich
##gy
vierten
43
##ohlen
Architekten
Mannschaften
Vorder
betre
Evangel
Gemeinder
##hten
##lÃ¤tzen
halb
##sachsen
Leicht
##val
No
Betroffenen
##grad
##unkel
lief
##wendungs
persÃ¶nlichen
##ouverne
schlecht
Fans
niemand
##fÃ¤l
##Ã¶glichen
EM
##ographie
staatliche
##ask
##lichten
Metall
##gro
manchmal
Transport
##94
Zustimmung
Vis
##pag
Log
hÃ¶heren
##iste
englischen
##EU
##pret
Heiligen
zweimal
Nationalsozial
##andte
Hy
namens
geltenden
##Ex
##ungspflicht
Maler
Soc
Herrn
##hÃ¤l
##maÃŸen
##stall
Erde
erforderlichen
Schmidt
##nicht
Formel
##edes
Rechtsschutz
##stÃ¤tten
Betreu
##ghan
##iveau
hergestellt
Rec
##geordnet
##mÃ¤ÃŸigen
##ental
##zimmer
Ident
##reift
Ill
1936
Bier
Koch
Syr
Glo
##okoll
Por
Orgel
produziert
Cla
##ominiert
##NV
##messer
##rainer
Meinung
Lieder
River
##station
Allein
BrÃ¼cke
##Ã¶ch
Bab
1918
World
##anzer
Sech
Varian
nahmen
sÃ¼dlichen
religi
Vaters
##ura
los
Schla
Lim
traf
Ã¼berp
anhand
versuchte
Neubau
##arn
##Juli
Sozi
Spann
120
Charles
stren
Bewegung
##achbar
gebildet
Freiheit
High
##endorf
##teilte
Australien
wirkt
##wÃ¼rfe
##technik
##Stadt
Beob
##uste
##ieger
##Ã¤uÃŸer
Mauer
##Fl
##manns
tÃ¶
##heater
##/10
##rÃ¼ne
hÃ¶here
Menge
ohnehin
behandelt
##ds
Sl
DM
Unterricht
Sat
Front
##bÃ¼r
denk
verlangt
##wes
Klassen
Griechenland
Freiburg
Bewertung
DebÃ¼t
##Ã¼ch
Premier
1934
Ziffer
##Art
mittels
Voraussetzung
##44
Single
##oret
##.2007
##einheit
Zimmer
##Ã¤testens
GlÃ¤ub
lÃ¤ngst
Bir
unten
##Hol
Regie
##wies
##Ã¼rzt
##fir
Wander
ermittelt
Sonntags
Dor
##gebiete
Tschech
gelegt
##beschwerde
beschrÃ¤nkt
Wetter
starken
landwirtschaft
1)
(3
Val
Anleger
zuerst
##National
HÃ¼
##setzte
Ã„uÃŸer
##Sa
##iode
##muse
beendet
Beziehungen
##77
BÃ¼ro
##weichen
DÃ¶r
braucht
##lÃ¤ndische
Serv
Fonds
leisten
tot
##rennen
zurÃ¼ckgewiesen
Jagd
verurs
Drittel
Bewohner
##enzen
ad
##imen
##udes
erhÃ¶ht
##atoren
##58
Aufbau
Eindruck
Dennoch
##63
##abilit
Prinzip
Amtsgericht
infolge
##:1
prÃ¼fen
Gebrauch
konzentr
startete
Feu
stehenden
1919
Hert
BÃ¤
##anteil
##stoÃŸen
MÃ¤r
##JW
sex
nebst
Berechnung
gehe
Heer
Krimin
Verhandlungen
freien
##gemeinden
##-)
##Aug
Fass
##fÃ¤llt
RÃ¼cken
zunehmend
##trÃ¤
Wappen
##grenzen
getÃ¶tet
bezieht
##Ã¶tzlich
Ordnung
Grand
##ory
Klinik
Stunde
GefÃ¤ngnis
##ony
erbaut
Handel
##rÃ¤nkung
Wett
hÃ¶chste
##urt
Cont
Soll
Ã¤ndern
Ungarn
##Oktober
##amin
GÃ¼n
kÃ¼nstler
Anerkennung
Rheinland
##liegt
##Gesch
Auskunft
Einzelheiten
Fisch
##stÃ¤d
abgesch
##Ã¤dagog
christ
erklÃ¤ren
##utto
##real
Ã¼bernehmen
Kabinett
##wuchs
##hÃ¤ngig
hierfÃ¼r
##achs
Kenn
##rischen
Christoph
FÃ¤lle
feier
##cm
##FA
komplett
notwendigen
verwiesen
##amerika
bezeichnete
Weiteren
beurteil
auszugehen
##43
##schloss
##kla
1951
Tel
Bundesk
##schaffen
##losigkeit
Regional
eigener
Zusatz
##arakter
##ussen
##ban
##ston
groÃŸes
##lehnung
##FG
##42
gemeinsame
##91
nachvoll
Revolution
##kore
1935
Ven
ZustÃ¤ndig
Auswirkungen
AuslÃ¤nder
##WG
Ã¼
bewusst
##hG
wert
MÃ¶glichkeiten
##erinnen
miss
Division
##ords
konkret
##sur
Priester
helfen
Marc
Regeln
eingerichtet
schlieÃŸt
Entwicklungs
##endeten
Zehn
ZunÃ¤chst
verboten
##terie
##mÃ¶glichkeiten
Bat
##zusehen
##ungser
ag
Ring
##mÃ¤ÃŸigkeit
BlÃ¼ten
##grenz
##rÃ¤umen
bildete
##sende
Anb
Beziehung
lern
##otent
##47
##500
erweitert
rep
##geht
1937
##BVer
befÃ¼r
Ã„rzte
gesellschaft
##krieg
##leihen
welchem
indes
##grÃ¼nden
##grÃ¶
Werner
Konflikt
Genehmigung
##62
##empf
Ebene
##uls
##aw
verbreitet
Roll
Angeklagte
##Ã¤ndigen
GrÃ¤
durfte
schlieÃŸen
##fÃ¼llung
Abgeordneten
Misch
nutz
Erkran
erl
Rudolf
Abschie
verab
##familie
glaub
5,
Opt
##zone
GebÃ¼hren
##assten
##brÃ¼cke
nannte
Strecken
Widerstand
##oy
beginnen
angelegt
Aufstieg
##person
unzulÃ¤ssig
mut
Integr
##Chr
##wechs
ko
legt
##punkten
Open
##isieren
Einrichtungen
##etern
Verantwortung
##hmen
Architektur
##Ã¤tzt
##September
##iana
##usen
##85
##onte
zwingen
eindeutig
ursprÃ¼nglichen
##lÃ¤sslich
##amtes
##spann
##leb
Disziplin
##renten
bekommt
Mainz
spÃ¤t
fahren
schwarz
##aser
Ehem
Gesellschafter
Beck
Konkurrenz
entsteht
##echte
Tisch
SS
##gessen
sor
##Ã¤ger
Erweiter
NJW
Willen
Stellungnahme
##wahlen
Erg
gener
Opposition
sowjet
Rekord
Cap
Grafen
kurze
##hoff
##spflicht
##schreiben
Einer
##hÃ¶rigkeit
dra
gemein
##emann
##gegenstÃ¤nd
Ausbildungs
##splatz
rechtfert
Show
Dpartement
dargelegt
##iftung
Unterschied
##hÃ¶rige
##iefe
##wÃ¤lt
Herstellung
Weltkriegs
Gemeinschaft
Manager
Sieger
behauptet
Moment
lautet
##besitz
##stoffe
beauf
Bestimmungen
Suche
ged
Telefon
GrundstÃ¼cks
miteinander
bewe
Nordosten
##BGH
Linien
Immobilien
NÃ¼rnberg
nÃ¶rdlichen
geist
Vorlage
Portug
##ammer
ausgestat
endlich
[unused_punctuation12]
abgewiesen
##klass
Mur
Kategorie
Verdacht
Vorgaben
##gehende
Notwend
Lig
##rÃ¤nk
--
##volle
1900
##etzter
##Qu
Rosen
betrachtet
verfolgt
Eintritt
MaÃŸnahme
##con
Nahr
##nissen
1928
erhielten
berÃ¼hm
weib
muÃŸ
##atisch
##etzte
##fristig
Kais
##88
Mes
##erb
FÃ¼rsten
Quer
Zwe
Vorstands
HÃ¶chst
##sberg
##November
##iol
Daniel
Zentr
##adel
aufgelÃ¶st
Wag
##Ã¤ngerung
endgÃ¼ltig
JÃ¼rgen
##Ã¶se
##ungszeit
##abteilung
Aufsichts
frem
##leute
Bist
##fabrik
##ografie
Abt
##bogen
ThÃ¼r
Besonders
absol
##hu
##beteil
tÃ¤glich
BAG
Klei
##verletzung
Atom
##werken
gleicher
##achim
AR
zustÃ¤ndigen
versehen
Schleswig
##ye
Unterlagen
beige
Musiker
freiwill
stehe
##eiche
##jahren
Bisch
rot
##ordnen
getragen
Bundesstaat
47
Temperatur
Streitwert
##bern
##zens
Nov
American
Tief
Klass
BeitrÃ¤ge
##gesellschaften
##66
eigenes
einzigen
Dien
##aro
Cup
Qualifikation
##iland
Liefer
Dadurch
##Ent
##ugend
Fahrt
##uropa
Auflage
##April
stamm
Existenz
Nic
Ã„hn
Spiegel
extrem
Siedlung
##eigent
Vogel
##hockey
##Ã¤udes
integr
Nie
lieÃŸen
bedarf
##ateri
gesprochen
##stamm
hundert
AnhÃ¤nger
zusÃ¤tzliche
##orien
Gru
##leistet
##49
##wan
##astian
gelei
dig
Anders
##rikt
##31
##gol
##zahlungen
##mittlung
##owski
Formen
Landschaft
##ÃŸig
Gang
starke
##wal
##auert
##inne
##olz
##lÃ¤ssigkeit
FÃ¼rst
Kiel
maÃŸgeblichen
Haut
BM
betroffenen
gegebenen
Marke
41
welchen
Neue
##alisiert
##Spiel
##ora
mark
vgl
##SS
Gedanken
BA
Untersuchungen
##Ã¤nderte
BFHE
##istent
BrÃ¼ssel
orden
##bahnhof
##erische
##machung
Schwerpunkt
nachgewiesen
##sdorf
bestehende
AnhÃ¶r
##istr
Forderung
Gymnasium
##assel
Sprin
##rÃ¶m
hÃ¶ren
##bereitung
##hÃ¤re
gelegenen
Ausbau
##Ã¤uden
ZurÃ¼ck
Afr
erfasst
sicht
anerkannt
Original
laufen
##79
Versch
Put
##ulgar
maÃŸgeblich
##Prozent
Ermittlungen
vergeben
Drogen
zugunsten
ermÃ¶glicht
##orter
1914
Dinge
##pat
Produkte
heil
Reihen
StÃ¤dten
##Her
##struktion
##FB
kurzen
rechnen
Schauspielerin
Korrespondent
##indungs
Oder
GÃ¶tt
aufgestellt
Territor
##holen
VergÃ¼tung
mÃ¶gliche
ermÃ¶glichen
Kapaz
Mig
liegenden
250
##prof
genehm
Darm
etabl
Eber
##echten
musikal
Eingang
##aktor
##ziehungsweise
Anp
Ingen
Karlsruhe
Fritz
##fonds
##etto
##69
##hod
Kil
TÃ¤tigkeiten
Ebenso
GÃ¤ste
treten
##akult
SÃ¼dwesten
##edig
Gesundheit
##weiht
Fal
abgeb
Enga
##/12
##gÃ¤
Gleichzeitig
##atischen
##StraÃŸe
seitdem
Heidel
##regelung
##Gen
##August
Mac
Landgerichts
Teams
##mÃ¤ÃŸige
rÃ¤um
##Euro
##Im
##orps
##klÃ¤r
Â§10
Ziff
##furt
##falt
##Besch
##kn
Ã¼berw
##its
einiger
##wn
1932
49
##/201
bedro
Angeles
erlaubt
verÃ¤ndert
##steten
allgemeine
##.:
##Ã¶rp
Autos
Island
##SPD
##fÃ¤lt
Mol
##essel
52
##ommern
Gefangen
##):
Minute
##bas
##dach
Neuen
Kos
##ira
Mod
Ziele
##irol
Entste
##.2006
##nant
lÃ¶
diskut
Anhaltspunkte
##ction
Ly
Dortmund
kennt
unterscheiden
einerseits
Exempl
Feder
Vorliegen
##kreuz
Bart
##stitute
##histor
##ual
mÃ¤nn
##Ã¼ndet
United
##ziel
##unnel
Status
ferner
rad
sÃ¤mtliche
beziehungsweise
anschlieÃŸen
1929
Rechtss
##lichem
Grunde
##37
region
KÃ¶
##altete
South
Vertrauen
Lau
Papier
Wit
Schle
system
##uff
hand
##kultur
Station
Wohnungs
Europameister
ErzÃ¤hl
##otion
demnach
hoher
##vertreter
andererseits
Information
##dex
##witz
##handels
hinein
##ektar
schwere
Lad
Gitar
##schi
Reaktion
##ink
##stÃ¼cke
Zwangs
Traum
##Ã¤umt
Entfern
angeblich
Nav
kontroll
Ze
Hub
##ungsanspruch
##bauer
##Preis
1,5
Jakob
hingewiesen
##Geb
Elis
FÃ¤h
Freunde
##unken
##beruf
##8.
konkrete
##stechn
Anwesen
ErÃ¶ffnung
entschied
##anda
##phase
Figuren
herum
ordnungs
##werben
##name
LSG
##kriegs
BrÃ¼der
gewalt
Bell
Demonst
##andele
Errichtung
Kro
Nordwesten
##schend
DÃ¤n
Antwort
Av
Ausgabe
Internationalen
Erfahrungen
##Ã¼nde
##Ã¤ndige
SÃ¼dosten
##61
##baus
Gerhard
Software
schÃ¼tzen
ungefÃ¤hr
Gest
auseinander
Hohen
Bedarf
Refer
Schmer
##bay
##Ã¼ll
Diplom
Lebensmittel
dortigen
##oo
Play
BevÃ¶lkerungs
vertra
geplanten
Alkohol
Cha
##front
jemand
Automobil
Ukraine
vorliegen
110
##verbÃ¤nde
Begl
Tatsache
##bran
Mittelalter
##hes
liege
genannte
bi
Treu
##artet
##erer
Gust
festzustellen
##schicht
Abstand
Francis
Flugzeug
verbesser
teils
##verwaltungs
##urer
Autobahn
##ani
morgen
##jor
benachbar
besitzen
SÃ¼ddeutschen
wirken
langsam
oberen
Planung
Erschein
technischen
elektron
Arz
StÃ¤r
Dir
sport
bezÃ¼glich
komme
##iqu
geborene
modernen
##ausgleich
Notwendigkeit
##ues
##gegangen
##Fra
##lohn
betrifft
suchen
##umente
private
##arische
Wochenende
Auftritt
Saar
Bord
Orte
Pau
##bedÃ¼r
##euten
##ales
##Ã¶rter
Niederlage
Weihnacht
##eider
dokument
Hir
##apanischen
AuflÃ¶sung
KÃ¶lner
entlassen
##grÃ¶ÃŸ
inhalt
##jew
##Part
Hinsicht
##CDU
umben
Kapelle
TÃ¶
##ces
##unschwei
##stuhl
SÃ¶hne
##istischer
600
Verd
##strecken
zugeordnet
eingeb
##Ich
Afghan
Preise
Flur
KG
Krise
[unused_punctuation7]
Seb
bestimmen
geschÃ¼tz
##modell
Treffen
Experten
Kandidaten
##vater
FranzÃ¶s
##emm
station
Zerst
Krankheit
##ey
handele
Ehemann
##enkt
##Ã¤lde
##isierten
Erhebung
##tÃ¤u
Kombin
##lige
##bringung
nachfol
##sinn
##rente
Elektro
wichtigen
##skosten
erstreckt
wichtiger
Tode
Sonntagszeitung
Polizisten
still
Rechtsmittel
Sel
Stich
entnehmen
##BC
##folg
unserer
verschw
Niedersachsen
##Ã¼ren
Verfassung
(199
EinschÃ¤tzung
##lenburg
##wege
##geworfen
##fÃ¤llig
del
##/13
##uc
##vort
##worfen
Festival
##mitglieder
getrennt
politisch
Kolon
##sersatz
Sw
##Pfalz
##sender
##walter
SV
##teg
##Ã¶ffnet
arbeits
Revisions
Umsetzung
##nehmern
eins
##graben
PlÃ¤ne
##prÃ¤sidenten
Glei
MÃ¼hl
VermÃ¶gens
wirksam
Filme
gegrÃ¼ndeten
##eidung
Dub
beschreibt
1925
##fre
Bestandteil
##.5
##spartner
##ilien
fehler
Sn
Bri
RÃ¼cktritt
##Nach
##ket
(201
##emark
verste
bestehe
beantrag
Szene
ausgew
##mÃ¤r
Fle
verlegt
##ER
Adolf
Last
handelte
##riss
Toten
grundsÃ¤tz
##ique
Len
SGG
kÃ¶rper
Etwa
gleichnamigen
Tonnen
Ram
Hauses
VerhÃ¤ltnisse
Schnitt
##SchG
##heute
plÃ¶tzlich
##ring
1924
##onym
zweiter
hÃ¤ngt
sitzt
(5
##entgelt
Objekt
##oria
##paar
fuhr
##skrÃ¤
##Dollar
erhebliche
1910
##stÃ¤ndlich
Wohnungen
SC
##alls
##beginn
BeschÃ¤ftigung
##das
Sur
besetzt
Schwierigkeiten
kanad
profit
mÃ¼sste
##issar
Lind
##medaille
Mun
Zahn
stÃ¤dt
##bilder
##Ã¶rungen
Acht
Ferner
Kriterien
Kooper
##rÃ¤sid
Kons
##oppelt
Himmel
##elevan
##Ã¶ss
jener
Sender
##ging
Rem
hÃ¶chst
##uÃŸball
##Gruppe
unterschiedlich
Stimme
Vorsitzende
Kanada
Ufer
katholischen
Marine
2011,
Bebauungsplan
##iale
##sex
Aussagen
jahr
##indet
##Ã¤hrungs
Roh
komm
Entwurf
##ays
Beitrags
##odor
Schuldner
##verhÃ¤ltnisses
Schiffe
schwerer
Kart
verstorben
160
dÃ¤n
Hill
2010,
##orts
Hinzu
samm
Scien
##einigung
##amerikanische
Zoll
jÃ¼dischen
Europas
Warum
benutzt
Mas
##stÃ¤
##kauft
Pier
##Ã¼tte
Lehre
Ã¤lteren
Jungen
##sky
##hat
VerstÃ¤ndnis
##aner
Ortschaft
Sowjetunion
##wÃ¤gung
Stadion
##41
##rische
Alfred
Kommunal
beabsicht
Katastrop
##nan
##scheinlichkeit
Vorgehen
##lÃ¤ufer
richtet
##chef
eingetragen
Werte
Vielzahl
Keller
##schaff
##verbandes
58
##ranten
Konzer
spÃ¤ten
##sprecher
##ips
gefallen
nachtrÃ¤
##reck
##sprachigen
Wissenschaftler
Hinweise
Zer
persÃ¶nlich
Irak
Eu
##rÃ¼cken
##blÃ¤tter
Inland
Befrei
wiederholt
nachvollzieh
vorn
darstellt
Figur
Leon
beauftragt
##.2005
reichen
automat
##KG
##attet
170
##kehren
Sekunden
##museum
##echnen
leist
Forscher
Vorteil
##opt
Vorbild
##konzern
##kÃ¶rper
##gnose
1927
Eck
Jos
Studio
##ebook
Marken
##uÃŸert
gemachten
Can
Schulden
akzept
Drehbuch
EuropÃ¤ische
historische
ums
positiv
Generation
Protest
Sab
##gehenden
Indien
##hig
russische
entwickeln
Zentimeter
Bahnstrecke
##uens
Organe
##viertel
spanischen
##dlich
Milch
##zene
ta
##dinand
##ischt
Bayerischen
6,
##inar
##lÃ¤ndern
Bedenken
##gebir
##erklÃ¤rung
##holung
legen
Lot
##felder
san
[unused_punctuation16]
Master
SchrÃ¶
##aktiv
##afrika
Ban
##ulierung
Forst
Zeuge
##schwer
erfÃ¼llen
##odurch
##gerechnet
##erken
CD
unterhalb
Ausschluss
Iran
##iedelt
endet
Golf
North
##reicher
bundes
ungewÃ¶hn
##jÃ¤hriger
##ags
##kat
gewÃ¤hrt
AufenthG
blau
##amts
besie
##System
Deck
Rettungs
erlassen
##spartei
keinem
##wirkt
2014,
Mitgliedern
Platten
##Jahren
vertrag
##sens
sitzen
Restaurant
festgelegt
##gerichtlichen
jung
abgegeben
Eishockey
staatlicher
##derungs
Alltag
##bef
Insoweit
##ouverneur
Widerruf
##ogle
Braunschwei
MÃ¶n
griechischen
Films
##flÃ¼gel
Weltkrieges
##ela
##konom
wodurch
ÃœberprÃ¼fung
##bilden
Mitbe
fordert
kÃ¼ndigte
##iertes
erteilt
rechtlich
festgesetzt
Laufbahn
Mount
##ligisten
unterrich
besaÃŸ
rest
##/11
##urn
##sonsten
Informations
##iw
Schadensersatz
nennen
Besitzer
##vorschriften
Arbeitszeit
64
##gerichtshof
Comm
##alerie
##artige
##eldet
invest
umge
KÃ¼nst
##-2
erfordert
##inzip
##vertrages
entsp
Einnahmen
##out
Erste
Joachim
Tanz
Cas
hierbei
Worten
Nachfrage
##lav
##riz
##alender
erstinstanz
vorÃ¼bergehend
##Mill
begrÃ¼nden
##genehmigung
genÃ¼gt
##strum
Strategie
##hende
##bad
Gestaltung
verschiedener
Mund
Facebook
jene
nationale
##ards
Schied
##partei
spÃ¤tere
##figur
##fragt
Fakult
Sturm
bestritt
##bewegung
ausgewiesen
##gau
##usste
Ohne
laufenden
##mag
Franken
damalige
##brÃ¼
##heorie
##Deutsch
##schuldner
Werbe
publ
##ofs
##annen
Kub
gearbeitet
AO
##lieger
schm
Aufwendungen
69
Ten
abhÃ¤ngig
##daten
Wiederauf
natur
einstwei
kleinere
Aud
##rede
vorhandenen
GroÃŸe
Geh
##bevollmÃ¤cht
Back
##app
##ota
Ã¤lteste
ausgestattet
Umgang
##ove
Eint
##chern
##gerung
Angelegen
##endigung
Verwaltungsakt
##Main
schaff
Daraufhin
Ã¼bert
Luc
##welle
##linder
Vf
soziale
##mlich
Wachstum
Verteidigungs
Regionen
Pu
##lange
Stoff
GewÃ¤hrung
IS
befind
##herren
Sprachen
Est
geraten
##stunden
##3-
Besetzung
ausgesetzt
Ãœberw
GrÃ¼nder
offenen
##irch
finanziellen
##lim
Ferdinand
##fa
",
##ilian
Direkt
##atin
Kard
Verwand
Entgegen
##teuer
national
Anz
Block
FlÃ¼gel
unteren
versp
Dritten
##arriere
##una
Gerichtshof
##kehrungen
Bewerber
Zins
##bell
umgeben
oper
Geburtstag
##alifornien
Brasilien
##Ã¶sterreich
aufgefÃ¼hrt
Gefahren
##rocken
##zwungen
1921
arch
2012,
Bronze
Athen
liter
aufgebaut
##rates
Ulrich
##Februar
Chemie
##kathol
leitet
##Vers
Box
1923
##ssystem
Mexiko
zumal
Straft
keines
Diet
##bereiten
Hoffnung
##zweck
##zell
##hardt
Urs
##Politik
Wende
sucht
Elisabeth
Vill
deswegen
Royal
##deutsche
##produktion
nominiert
Behinder
##pre
##IS
##aud
##icker
Pens
VerlÃ¤ngerung
54
##ungsklage
rechtfertigen
Bol
##atische
urkund
Syrien
Chancen
##findung
##straÃŸen
Aussicht
##aux
sog
gegangen
flieÃŸt
kÃ¼m
##stil
##lebt
##gehren
Monats
GrÃ¼ndungs
##ior
##gigen
Dok
##sphÃ¤re
##hÃ¤usern
Haushalt
BÃ¶rsen
##bungs
##mauer
vorgelegt
Dritt
Ansatz
Autorin
zuzu
##/09
Mut
##hÃ¤ndler
##licherweise
Leser
ren
Kalk
##ws
##titel
##hofer
unterstÃ¼tzen
##HL
##So
umbenannt
##Ã¼hrt
##direktor
##lichkeits
Black
##86
Google
##gler
Amtszeit
##Sie
##stande
##Ã¤cher
Jeder
##ria
##andal
worauf
51
##text
Mio
Ã„nderungen
Turn
schreiben
islam
##ierend
japanischen
130
1931
##bedarf
Forderungen
Ortes
##okraten
bedeutend
##star
ErgÃ¤nz
verstanden
Kurt
Aufenthalts
Sachverhalt
Kino
Andere
##problem
Diskussion
1922
erlÃ¤
##region
Handlung
falsch
Einkommensteuer
##igter
stattfinden
BeschÃ¤ftigten
##essischen
machten
Sus
Meck
ZÃ¼ge
angekÃ¼ndigt
##iefen
Serien
Nachweis
Theologie
Ã„g
800
mar
sofern
Passag
Pfarrer
Adr
erfolgten
##not
Music
Alpen
##kas
Geschlecht
##frastruktur
Erfahrung
##pekt
##deckung
##rages
erforderliche
VerÃ¤nderungen
Dig
Ther
Landesarbeits
Aussch
Tu
begrenzt
Feuill
Verfolgung
##eiern
schlug
##Ã¤mpfer
Rente
##eihe
spÃ¤testens
Ã¶stlichen
56
Arznei
Lebensmitteln
##ado
gern
##oden
GroÃŸteil
##behandlung
##kunst
polnischen
##ministeriums
##.2016
ausgesprochen
Erfolge
##weiten
2013,
##kop
##gramme
##schlags
04
BÃ¼hnen
##rÃ¼st
Merc
freie
Gustav
Rathaus
Wahlen
##zellen
Wahlkampf
Kamera
##medizin
spielten
##ekul
Landschafts
bot
##gebote
aktuelle
Initiative
1912
diesmal
##auso
##sÃ¤ss
Gelegenheit
##stie
Allgemeine
##echan
1926
verkaufte
Erforder
Abwehr
Sendung
erzielt
Henry
2009,
Verbesser
Farb
Mission
gÃ¼lt
##einhalb
##phan
##hofen
##rib
##gemÃ¤
Streitfall
vertrat
versuchen
##sab
Steuern
Rollen
Letzter
gehandelt
Verbot
Priv
Fotos
##gab
durchge
##glos
fung
Gau
##skon
##swert
klassischen
##gewalt
handeln
##por
(4
anal
Erwart
Wes
##gig
##gebieten
##yle
Tab
vieler
Kathol
monatlich
lagen
DÃ¤nemark
##52
##rÃ¤sentanten
BauGB
Magde
##Ã¶rdern
##spir
wechseln
##ku
Inseln
Museums
Pfar
Sonne
Botschaft
Erteilung
vermeiden
##bchen
Charl
Anspruchs
##ella
fach
dienst
Gebiete
Oberst
OLG
Klavier
Afrika
Roten
VW
glÃ¼ck
AS
##geblich
Inhaber
##deln
##zenten
##gebe
Nachwuchs
Meeres
##pap
##projekt
angefochtene
##ichtung
auftreten
Ken
Karten
Chic
KÃ¼ndigungs
Diesen
##Ober
lehnte
Allgemein
beit
lo
GefÃ¤hr
Ã¼berzeugt
##schuld
FÃ¼hrer
##seitig
Maxim
Bett
Aufwand
##Ã¶die
##aktoren
##ird
Sicherung
##.2004
##ahrt
VÃ¶lker
sorgen
Jahrzehnten
Betroffen
##Ã¶rtert
unzur
##auft
Gerade
Million
##Ã¤ler
gleiche
bill
Villa
Hug
Spielt
##PS
##ras
Trink
##kow
Einzelnen
##uel
##kopf
##grÃ¼nder
##ridge
##horn
##gehalt
betreibt
Rechn
vorbe
##Ã¼te
##nÃ¼pf
Vict
##Jahre
Reda
gelungen
abzuweisen
verkÃ¼n
##87
##rond
beschÃ¤
##underte
zivile
##bund
##stimmt
ille
##53
##fangs
Bernhard
Beigeladene
##rÃ¤te
SchÃ¤den
Schnell
Arbeitsgericht
##IV
Ori
##enten
##iation
##Holstein
##bahnen
betreffenden
errichtete
Prote
Festsetzung
##Ã¤mpfe
##SÃ¼d
DFB
ZDF
kritisiert
##witter
##institut
Vereinigung
Domin
mithin
##ierer
##nieder
##bem
##Mann
##Ã¼bt
Chin
##estern
##unterricht
beider
europÃ¤ische
pop
Nationen
##ii
Cro
verstÃ¤rkt
##ther
dÃ¼rften
Beendigung
##born
##nes
Ebenfalls
StreitkrÃ¤fte
##meer
Zuvor
Tabellen
##gestellten
##attform
##ikanische
##cu
WeiÃŸen
Party
Veranstaltungen
Einstellung
##gebiets
Unions
BV
zitiert
unterwegs
##kolle
Trag
Ausgaben
##arf
Hund
##legungen
##ilometern
Veranstaltung
Brenn
Matth
##/14
wÃ¼n
begeg
gewÃ¶hn
Wahlkreis
##ologisch
Satzung
##gewinn
##hauer
EinkÃ¼nfte
##bÃ¼cher
Ideen
erÃ¶ffnete
tÃ¼rkischen
##bacher
##rÃ¤nkungen
##holog
##strom
Buchst
##ais
Engagement
53
Atlant
FlÃ¼chtlings
beschrÃ¤n
##56
Carol
Bob
lebens
bemÃ¼
Bruch
Staates
berechtigt
##herrn
##inu
##waffen
##pflege
##ates
AufklÃ¤rung
Mu
Fast
zeitweise
austral
Tennis
Gemeinsam
Afghanistan
Adels
##Ã¼l
DV
angeschlossen
##Ger
Berater
chinesischen
##icke
Liber
zugÃ¤nglich
gegrÃ¼ndete
##rock
gelegentlich
##sverfahren
##dreht
##nitten
##decken
Verurteil
##ader
##kw
##klagte
Gelt
##Zeit
##/08
##ianer
##Neu
##lehre
7,
Madrid
##Ã¶nen
##Ã¼ndnis
anf
Erwachsen
phil
Beweg
Mitarbeitern
Objekte
veranl
##riel
GebÃ¤uden
Heidelberg
individuellen
geplante
##zÃ¤hlung
Gall
##athlet
person
steigt
##eland
Schicks
Trennung
Gegend
niedriger
##83
Ãœberzeugung
##ausende
##systems
StraÃŸ
Bereichen
##ehrung
##Mitglie
BVerfGE
Kommunikation
Sieben
UniversitÃ¤ten
dank
LÃ¤
##het
##atzen
Live
##weislich
##jahre
##genÃ¶ss
##fass
##ifiziert
##wissenschaftler
Mi
##ption
ansÃ¤ss
Lande
##mitte
##asi
Mitgliedstaaten
##steuerung
Hauptsache
UrsprÃ¼n
Bundeskanzler
Ã¤rzt
Fabrik
Angela
##genossen
Texte
train
Ãœbertragung
##El
Edu
##ungsrecht
##ails
min
##Institut
gesetzliche
##Kreis
weite
Oberlandes
Religion
Design
RÃ¤
Rau
##entsprechend
wesentlichen
##gleichen
unklar
##ny
##sparteien
Pak
Sebastian
frÃ¼he
Nikol
eingetreten
##edition
##ianischen
Urteile
VÃ¶
verwei
erheblichen
Hat
##IN
##spur
Company
Differenz
Theorie
anzusehen
franzÃ¶sischer
1913
mon
##gÃ¼ter
zurÃ¼ckzuweisen
##fels
persÃ¶nliche
##Europ
##armon
weisen
offiziellen
##iano
einschlÃ¤
KÃ¼sten
WÃ¤hler
Alli
Pir
##chron
aufzuheben
##geschÃ¤
voller
##ppel
##kandid
##gendes
##84
Prag
SpÃ¤t
reagieren
unterstÃ¼tz
##album
ziemlich
##tes
Konsequ
##usse
2008,
Einheiten
fÃ¼
Kalifornien
auÃŸerorden
##ET
Basket
Parallel
Erzbischof
maximal
gestorben
##igner
##darfs
Tax
##jekten
Aufnahmen
angeordnet
2016,
rechtswidrig
Hyp
begannen
Vorstellung
##phen
##hungen
Jugendliche
ans
Hell
Anges
Entfernung
##schten
Sym
##nummer
Bv
##Berlin
Rechten
Sitzung
##uns
##kasse
Konzentr
Amate
nÃ¶tig
passiert
cm
Motiv
##DS
lieber
Halbfinale
demokrat
##BFH
##folgt
##hÃ¶ren
KÃ¼ste
darstellen
##ywood
rechte
##gesprÃ¤
Records
Vertrieb
##organis
##Mus
##hersteller
140
Zulassungs
Produktions
(,
##schu
Feuilleton
##junkt
Kult
##ec
##act
Kohl
vorwiegend
erinnern
fehlen
##ows
japan
FakultÃ¤t
zentralen
Â§7
versetzt
wendet
##behÃ¶rden
FÃ¼hrungs
##VfG
##var
Ã„gyp
PreuÃŸen
solches
geregelt
Dol
Durchmesser
##ando
Angriffe
gebunden
##hÃ¤n
gestaltet
##ialen
untersuch
##vollen
abweichen
rÃ¶mischen
FuÃŸballspieler
##fÃ¶rmig
Mittler
##kÃ¼ste
##rill
Hertha
WÃ¼rz
##ministerin
##eimar
baute
##spricht
Posten
Quelle
Elemente
Aachen
Erfolgs
##otto
konserv
##ungsverfahrens
##schiede
##Kommission
Erinnerung
Management
y
ide
##ly
Geburts
bisschen
straf
##afel
Van
Augsburg
Summe
dritt
##sburger
organisiert
lehr
Orten
##Ã¼tze
Nachfolge
##bungen
Chicago
aktuell
unzureich
verfasste
##hnten
2)
##laube
AnhÃ¶rung
##eise
Stan
##quenz
##digungen
kost
##-/
dan
PlÃ¤tze
Ãœbergang
Freizeit
Lokal
beanstanden
##artig
schne
##ji
Erne
Debatte
##antas
##hematik
##miss
Hockey
Unrecht
##stehende
Markus
untergebracht
Spitz
Marien
Vorkehrungen
##irt
##Ã¼rmer
speziell
Braunschweig
##ugnis
Finanzierung
##grÃ¶ÃŸe
Klar
ErfÃ¼llung
Rechtsstreit
##san
##glas
Tok
Hard
##belast
##Zent
Damen
italienische
Obama
##5)
Schieds
##gebÃ¼hr
Hektar
##leun
Infan
Pots
##ky
Spar
Training
##hur
##glÃ¼ck
droht
##fÃ¼gt
##mith
##Ã¤mpft
Behaupt
Einkauf
##vorsitzende
Vin
##spiegel
##baute
##kul
Pferde
Matthias
##motor
Republ
erlang
Haltung
##adion
##artigen
Abweich
lesen
##fekt
Brig
##ilder
##PrÃ¤sident
Armen
##konferenz
Orchester
##ress
Andr
##nchen
Junioren
gerechtfertigt
##82
reprÃ¤sent
SA
##gerufen
Mem
verlangen
Mecklenburg
meinen
angehalten
Klin
ausfÃ¼hr
Hab
dauern
##urnier
57
Fremd
##.),
bauen
Unterhalt
Farben
Wagner
betont
BeeintrÃ¤cht
##lÃ¶sung
##vertrÃ¤ge
##arry
Aufmer
mangels
##no
Kost
##risten
Innenstadt
unterscheidet
Individ
MÃ¤nnern
##folgen
Assoc
Brust
unstreit
vereinbart
Honor
Muster
##klei
##lÃ¶s
##gu
privat
dringen
errichten
untersucht
verbrachte
##schieben
verbundenen
ost
Spark
KapitÃ¤n
Kob
10.000
##position
bestÃ¤tigte
05
vorliegt
verteilt
AusÃ¼bung
##schlÃ¤gen
Freundin
verbindet
Zwecke
Jed
Bass
##wÃ¤rtigen
stellten
AktivitÃ¤ten
bra
verstarb
Bilanz
Simon
Deutscher
fÃ¤hrt
Horst
Amerikaner
##ila
##elbe
vorlÃ¤ufig
##Ã¤nner
SchwÃ¤
Ablehnung
##bÃ¼rgermeister
Ruhestand
##oral
Prakt
manche
begrÃ¼ndete
x
kÃ¶nig
Oscar
##hre
vorgestellt
Basketball
##las
zukÃ¼n
existiert
##ump
Franzosen
##ssen
1911
su
##offiz
##ourt
##haftet
nachzu
##enkung
herange
##farben
2015,
01.
##Par
1917
zulÃ¤ssige
##gegenstÃ¤ndlichen
Lokomot
Schall
##ilde
Street
Kanz
##emit
##firma
##pper
##sÃ¤chs
##izierte
Mikro
nied
UnabhÃ¤ngigkeit
Golden
##CA
##ops
##gi
ebenda
1908
kleineren
beeintrÃ¤cht
Akte
bÃ¼rger
Nutzungs
##alte
Panzer
##utung
Sprech
Wiesb
##rate
##sieht
zentrale
mittleren
Ihnen
Argentin
Tempel
##zeichnete
##ieb
##gf
Ã¼blich
Helmut
begleitet
Phase
sin
##geschwindigkeit
Dial
Umfeld
##201
Publ
Belgien
##einbarung
Wahrheit
##freien
Wicht
##air
##ernt
##lÃ¤nge
##omet
##anuel
Gebir
##oto
##aufen
##begrÃ¼ndung
##200
##bor
Fla
GeschÃ¤fte
1907
Untersuchungs
##ZB
##teren
Emp
fÃ¼nften
##einheiten
Trotzdem
##anal
State
##kapital
Sau
gÃ¤nz
ergebe
Sauer
EntschÃ¤
Wiesbaden
Hitler
golden
2007,
##heblich
Trieb
Pek
ehren
Sha
zustÃ¤ndige
##edikt
technische
##stedt
##fÃ¼gung
wÃ¤chst
##eignet
##57
port
beherr
Mir
Rod
##reuen
zÃ¤hlte
verlÃ¤ngert
Werbung
##Bet
Ron
geringen
##51
Argument
##kes
##inischen
ausgesch
##atsÃ¤chlich
##einkommen
Ãœbergangs
##iety
krÃ¤
##89
geschlagen
frist
##atal
##sert
verweist
Erweiterung
##rÃ¤sidentschaft
zweier
##berechtigten
Leop
Schneider
##kal
##low
keinerlei
schwierig
##mont
Gipfel
eingegangen
schuf
Institute
betra
##IA
domin
mehrerer
sonstigen
Bibliothek
##59
##Ã¤hn
##orient
Begeg
vermeint
##BAG
Rio
##quart
Barbar
verkaufen
Stimm
weiÃŸen
GemÃ¤lde
##hers
Asien
LÃ¤rm
gewerb
komplex
MaÃŸgabe
Arbeitsp
benÃ¶tigt
latein
inne
Farbe
1905
##Ã¤tte
Gemeinderat
Prior
Kommentar
vorgelegten
Koll
geriet
Werken
##Med
hart
Eigentum
Reisen
beantwor
anfangs
beziehen
##ucher
ARD
##essern
2,5
Bos
Ausschuss
Cre
##leistungs
##ausbildung
##zeitlich
Ell
eingest
GebÃ¤udes
prÃ¤sentiert
##Ã¤rme
tarif
##enken
##verstÃ¤ndnis
entf
unterstellt
Ã¼berwie
Rechtslage
geschÃ¼tzt
Heiz
##eiteten
post
passen
Dieter
##MS
##setzungs
Tarifvertrag
Ã¼blichen
##isen
##verhalten
##lor
Beamte
Vorschlag
##reche
##gentur
##unen
verfÃ¼g
auszuschlieÃŸen
Freiheits
mÃ¤cht
Betreiber
Opern
##Ã¶der
Olympia
Ensem
scheiterte
Ox
##spitze
besucht
umfasste
geklÃ¤rt
aufgegeben
ErhÃ¶hung
Kris
Fortsch
brauchen
Tit
mittelalter
Jahrgang
GlÃ¤ubiger
Ess
Service
##obel
GerÃ¤te
##OS
##Band
seither
IdentitÃ¤t
SchlÃ¼ssel
Pen
##heil
##partner
SchrÃ¶der
Yor
Angesichts
##Ã¤rten
##field
gesonder
Saal
Barcel
##organ
verwenden
08
##kurs
##lieb
Vereine
##entwick
regu
##ati
##ettet
erreichten
##TA
gÃ¤nzlich
##wirksam
GefÃ¼hl
Ordnungs
Fleisch
Ursache
##etenz
holte
erober
hinreichen
##widr
66
rÃ¶misch
rechtliche
##lowakei
##teilten
Bereit
TÃ¼b
##/07
schied
vorange
Ermessens
chem
Schal
stimm
aufs
##rondiss
Gebieten
schaffte
Span
Breite
benachbarten
##gelte
##lagt
##autor
KÃ¶nigin
Py
wann
lernte
##oche
##periode
Hierbei
##erven
##inhaber
##oping
##zogenen
##fÃ¼hrerin
##mÃ¼hle
##gefunden
seinerzeit
schneller
##reihe
vors
anb
erkannt
preuÃŸischen
phys
##BS
Entstehung
Kapitel
immerhin
##Met
##gere
kurzer
Kein
ries
Ã¤ltesten
##fÃ¤ll
##brech
Donald
Ã¼berall
Umbau
##voraus
##stellers
tschech
##Fin
##Anhalt
##minist
Ermittlung
frag
##denkmal
finanzielle
##Serie
##zem
##Ã¶z
Integration
vorlÃ¤ufigen
##ipend
arab
##zÃ¼gen
TatsÃ¤chlich
israel
traten
spezial
##mÃ¶glichkeit
promoviert
charakter
gerichtet
VerfÃ¼g
Vorrat
Ã¼berein
Basel
meiner
##krise
Leiden
mutmaÃŸ
Ã¼berraschend
derselben
tat
##Aut
##lagern
angemessenen
warten
##meisterschaft
Arbeitslosen
Operation
##aktionen
House
Weiterhin
genauso
Anwendungs
##gekommen
##alem
Stab
as
Anne
Aufmerksamkeit
##aillen
##aterialien
unbedingt
Group
zentral
##);
##schungen
Sei
##Ã¤nderten
Nap
##Ã¼tter
Messe
##RA
##akademie
##sson
BedÃ¼r
Jon
aa
eingelegt
##meier
gestiegen
anlÃ¤sslich
##hy
Green
Sankt
gaben
GrundsÃ¤tze
Kritiker
praktisch
Mathematik
##ahe
Apothe
ZustÃ¤ndigkeit
Hollywood
##bewerber
digit
Dichter
bessere
BeschlÃ¼sse
##leiten
##brig
Nutzer
##rans
Freien
Protokoll
##Klasse
##emburg
verblieben
Demokratie
##/15
Arrondiss
VII
##vorsitzender
##Am
##rs
##ieh
##deckte
##schirm
##iki
beachten
kn
##achteil
1906
Unser
Weis
reduziert
##AZR
Vergabe
##81
Noten
##Ã¼rzung
[unused_punctuation18]
Schwa
Fein
nachvollziehbar
Heinz
##ifik
finanziell
Ã¶rtlichen
Schau
##KW
PS
##gesetzte
##skraft
veranst
##engl
Norwegen
##zelt
##ersatz
Meyer
##konzept
Bewill
Ve
Trend
##ethe
Emil
moderne
##lament
gelegene
rom
bayerischen
##otyp
zwanzig
Elf
##gerÃ¤te
##lehrer
Deleg
##elen
##barungen
vorzuhalten
tÃ¤t
62
##schlagen
ermor
##quote
unan
abgesehen
abges
##ema
##platten
definiert
stabil
vorne
##studium
##wahrscheinlich
glaubt
##rugen
8,
Variante
Vollstreckung
##affung
Aff
##Ã¶nt
##gefahr
##ummern
jÃ¼ngsten
Hau
gerichtlichen
09
##Ã¶rte
Anti
Schriften
59
Fell
befÃ¶rdert
##sey
##ohnt
Spuren
greift
ergÃ¤nzt
##fahrten
Kassel
FÃ¼
##klagten
##ilen
##Min
(17
Acker
##atorium
Kombination
Tsch
Funktionen
Dampf
ursprÃ¼ngliche
Lasten
Zy
##menge
##essung
Brie
bisherige
gelangen
Sak
Finn
##zeichnen
Pfarrkirche
##boden
Spur
stat
##Rep
Krei
zusÃ¤tzlichen
##team
mitgeteilt
Horn
AuÃŸenminister
##fle
##ogt
Erkenntnisse
##ileg
Tar
##etts
begehrt
schwarzen
gelassen
lÃ¶ste
Il
Austral
##hauptstadt
IX
##wettbewerb
Barcelona
##Ã¶ll
beobachtet
##Sieg
Songs
Prinz
Stephan
##Ho
May
##logen
Projekte
##freund
Link
Schild
Ã¤ltere
##ikon
hell
Magdeburg
militÃ¤rischen
nachhalt
##Ma
Freu
sichern
Off
Kaisers
85
##entscheid
ArchÃ¤
Pra
68
Erkrankung
Bein
##Ã¼ben
##indern
##pla
Spren
Donau
ausreichende
##fÃ¤higen
Planungs
Geschichten
ter
##Vw
Braun
##isst
dat
Jacob
##zesse
Marie
KurfÃ¼r
##Ã¤chsischen
Ok
##dungen
Engel
Edward
feierte
Bestehen
##gelÃ¤nde
Krist
##oslaw
##redakteur
Ereignisse
##Gem
##demokrat
Darmstadt
##halter
##fahrzeug
##zustand
##rain
63
##able
belg
##stitution
existieren
rÃ¼
katholische
grenzt
ergÃ¤nz
Journalist
Selbstschutz
##aker
Wurzel
##ungsantrag
Big
Gatt
##lÃ¶sen
Boot
##gebÃ¼hren
Mannheim
registr
##Film
kÃ¼r
Risiken
GÃ¶ttingen
##Ã¶ÃŸt
gefordert
Gegenwart
[]
##itor
##Co
##lagert
##cen
##ahls
##einsatz
##strahlung
nochmals
##veranstalt
geeignete
1500
Bert
##ci
Labor
Leichtathlet
Boch
hinweg
##amter
##druckt
##schnitte
##oz
Ã¤uÃŸerst
tatsÃ¤chliche
Architekt
kÃ¤mpf
##heber
##pflanz
##gegenÃ¼ber
Arbeitsplatz
##schÃ¤d
Gabriel
alleine
Indust
BVerwGE
entstandenen
popu
Eigenschaften
67
KÃ¶n
promovierte
##auten
##gelegen
wirtschaftlich
##anbul
##aka
##pal
##otor
verbrei
##wechselt
dÃ¼rfe
Herbert
##stufe
##splan
amt
Verf
##zeigt
mÃ¼ndet
Vertrauens
##isa
aufmer
Organisationen
Investoren
07
StGB
##hochschule
##kÃ¼r
hum
Halte
zumeist
PrÃ¼fungs
##ido
##traum
1890
##ettel
verabschie
BÃ¶rse
##zep
gefert
##geordnete
Anfecht
Quartal
##ves
##macher
##eting
betonte
zufrieden
offizielle
##vard
erfolgreichen
beantragte
1:
Ral
##ED
GrundstÃ¼cke
Jugendlichen
##steine
##Cl
##perrt
##graf
##nÃ¼pft
##henden
##mord
Ski
glob
##vi
Auge
zogen
VorwÃ¼rfe
##Meister
Gegenteil
Weihnachts
Konrad
##schlossen
Ã¼bergeben
##stes
##schutzes
Portugal
intensiv
Bayer
Gemeindegebiet
##RR
Methode
Schuss
einzig
kaufen
Terr
2006,
profession
MÃ¤
##VP
##duktion
1909
##gerÃ¤t
Sche
schlÃ¤
##berater
Kalender
##ausschusses
##ubs
Az
bewegen
Imp
King
##onien
Margar
Weltcup
seitens
Leib
Archiv
Lizenz
Vielleicht
Medik
erstellt
schwedischen
Schnee
Weimar
versteht
##ronen
Verbands
studiert
##Haus
gedacht
Mieter
##mete
RdNr
bewohn
sorgte
heran
ThÃ¼ringen
schmal
##vermÃ¶gen
allenfalls
Symbol
Alternative
Sound
getan
erweiter
Erlaubnis
wesentliche
##auss
gescheiter
2019
Dagegen
##ordnungen
kirch
LÃ¶wen
Theodor
Schlaf
##otischen
beteiligten
ZusÃ¤tzlich
bewaffneten
Bestands
##orweg
HÃ¶hepunkt
LÃ¶s
Mult
Belastung
wichtigste
1904
leiten
##Team
##fenster
Michel
##kar
##verordnung
##brechen
700
##Ã¤uÃŸert
##onne
Ã¼berzeu
entscheidend
##sive
dunkel
Que
part
Frucht
anzunehmen
##sph
Bremer
Ingenieur
dÃ¼n
Inzwischen
Glob
Partie
gegebenenfalls
AfD
##pass
davor
Metrop
Touristen
##.000,00
PortrÃ¤t
Aben
trocken
##brand
##bew
##pflichtigen
verfÃ¼gen
Baut
Pflichten
umgesetzt
##freie
Analyse
##isation
##wirtschafts
##ario
##.2003
##undet
altern
##vorsorge
Tol
Schatten
vermutet
##-1
##jan
Neuer
brutto
Folgenden
Ri
Mars
Academ
Damals
Hochschul
teilnehmen
stattdessen
##Ã¼ckt
##onischen
##ms
GesprÃ¤che
gesichert
##karten
liegende
##Sen
##rol
landes
##ppt
Zit
Baur
1860
angep
Vorwurf
##Gro
##einrichtungen
##Lin
Poly
##opol
Jub
Mannes
Alles
HÃ¤nde
deb
Methoden
Zahlungs
Mittelpunkt
##maschine
UrsprÃ¼nglich
Verbreitung
Beton
##rix
Zugleich
verhindert
Worte
##junktur
erfolglos
Schach
Angabe
##col
##zinssatz
Gouverneur
##arburg
##8)
Vorbereitung
##La
Diesel
##seud
Els
##ska
Therapie
Siedlungs
Rohr
##prom
Junge
MaÃŸe
Weibchen
##Stud
##ilber
##Mail
Details
##ged
Abgabe
##fertigung
Rates
##mie
befanden
eigenstÃ¤ndige
Society
##agne
vari
1915
vergessen
Abgeordneter
##bein
Hals
Altar
Vorsitzenden
vorgesehenen
##metho
##jah
kÃ¼nst
##zwe
Eg
Kooperation
##mir
stehende
protest
##bescheides
##beschÃ¤ft
##ous
##herrschaft
Darin
informiert
FlÃ¼chtling
##rechnungs
Verkaufs
##uz
Karte
manchen
Tourismus
RumÃ¤n
kleines
02
erbracht
geschehen
##For
lernen
Liebes
bevorzu
Historiker
entwickelten
gesetzlich
##cia
##liehen
Mary
##gelung
Seitdem
##gor
tut
glauben
Patent
gewisse
##gast
Blau
Zahlungen
##ero
##usk
sÃ¼dÃ¶stlich
##berat
diejenigen
konvention
Physik
##MA
Filmen
Konto
##pst
Adam
##aufnahmen
Europe
verhaftet
Vorjahr
##wende
##hler
Zut
Ãœbersetzung
##yk
##elor
Pariser
Treffer
##,50
##material
Profess
##seln
Weber
Lob
Gebiets
Fraktion
##lar
##mutter
Gramm
##platte
##richen
##abet
1899
##korea
Center
gezwungen
Szenen
##begriff
##ythm
##tal
06
Ã¤hnliche
Herausgeber
##elev
##stellerin
##.198
##abschnitt
internen
##orenz
Gesang
##Sh
Epis
77
##erben
##ammern
##Zeitung
Handlungs
BMW
beseit
Mittelfeld
Lit
verdient
##era
Install
##bereitet
einfachen
Cat
vergleichbar
verzichtet
##klang
Latein
Tunnel
ggf
PreuÃŸ
ermitteln
spezif
##werfen
Davon
##oma
##wel
##quelle
englische
Verbindungen
gelte
VertrÃ¤ge
Eintracht
Niederlanden
Times
Instrument
ausgebaut
oberhalb
Heb
Brot
Positionen
##aiss
##ehle
##mack
##polizei
sÃ¼dwestlich
##isser
VIII
angebracht
roten
##mension
Nachbarn
saÃŸ
Istanbul
Handeln
##ugh
##umenten
##orrespondent
##zusammen
Buchsta
##atÃ¼rlich
##mond
2005,
Sprung
##viel
Pod
schlechter
##lassungs
Beschlusses
Zeug
Apple
##trainer
##ulpt
Oster
##finition
Betr
##dies
##ammelt
einfache
erhÃ¶hen
verwendete
1870
Yo
Neum
##put
Wird
Wissenschaften
EuGH
##bereiche
verfÃ¼gte
##stiegs
Englisch
Eduard
Hierzu
Wunder
Salzburg
gelingt
1916
Jeden
fielen
aktiven
##bro
##waffe
Orden
##teilungen
breiten
Handball
gestÃ¼tzt
verrin
##2-
Wettbewerbs
##/06
benannte
langer
##zieher
Trinkwasser
Absch
Schum
verkehr
Internationale
##ckel
Altstadt
denken
##Um
##entin
hinten
Mic
Anteile
##maschinen
##rÃ¤sentantenhaus
Staatsange
##ladung
Laden
Schne
Smart
Rab
urkundlich
Umsatzsteuer
Infrastruktur
kÃ¤mpfen
belegen
##legungs
##turm
Mah
Instituts
##ivision
schlechte
Kle
##entum
##dis
Mari
gefÃ¤hrdet
##ikte
Benedikt
##Anlage
##beding
##Ph
##gibt
##preise
freier
##Nieder
##sprÃ¤sident
Arrondissement
##rel
##gewachsen
abschlieÃŸen
##rÃ¤uch
aufmerksam
Slo
wichtiges
Dank
Smith
anzuwenden
NA
Notfall
vollstreck
Gemeinschafts
Branche
##Bes
behandeln
Datum
Jedoch
Greg
AbwÃ¤gung
##eiler
Religions
##ÃŸer
beinhal
##machen
##vorstand
Herzogt
1901
Freis
leiden
mehrmals
effekt
##ckte
Oberverwaltungs
##Ã¤rte
##ehrer
##betreiber
##ador
Kassen
fÃ¼hrenden
##sprÃ¼fung
ergÃ¤nzen
geschickt
selber
##Sport
Schei
Ã„m
ErklÃ¤r
unstreitig
Leopold
MaÃŸstab
teuer
Arme
Somit
##ergebnis
##telle
##ordnete
##schlÃ¼sse
VerjÃ¤hr
verlieren
Wirtschaftsk
Bogen
##imir
##beziehung
##ordneten
Jahrzehnte
##EC
rasch
TÃ¼bingen
verurteilen
Digital
GrundsÃ¤tzen
##Star
gezahlt
##vereinigung
gestellten
Lar
nordÃ¶stlich
Betriebe
##aiser
Still
verbleiben
Gymnas
Mitteilung
101
festgenommen
Premierminister
##Br
KrÃ¤fte
beanspruch
XII
2004,
TÃ¶chter
beschloss
##Ro
##osa
##jo
IT
##otball
beeinflusst
##tor
##interesse
Verhaltens
##ques
fertiggestellt
VG
Press
Vizep
##Fran
Science
##apel
Denkmalschutz
rechtmÃ¤ÃŸig
Ihm
met
##fÃ¼hrungs
Komponist
Fam
Franzisk
Gei
##Ã¶rg
##leihung
Zucker
gesundheit
Bauch
##otische
herausgegeben
##let
Masse
RÃ¤ume
Stimmung
##asien
Astron
Mangel
##fÃ¼hrers
zeitgenÃ¶ss
##erkt
Felder
##einrichtung
Ener
Magazin
##itim
##angebot
##emp
Zuschau
Austausch
Beispiele
Investition
Unterschiede
Ax
Bald
Grafschaft
##entlich
dreimal
##dienstes
##hob
vierte
Ereignis
##utete
Doktor
Ãœberra
ErwÃ¤gungen
eigentlichen
Niveau
##unfÃ¤higkeit
##TL
Flag
Fortsetzung
erlangte
Vorstellungen
Blan
##ctor
Gerichte
desselben
##elli
##olen
##wann
Orient
lÃ¤ngere
sichtbar
Fertig
Jesu
##geordneten
generell
1903
getreten
abgerissen
retten
##erte
Neur
##BVerwG
##pression
Verteidiger
Tha
##rest
result
##abilitÃ¤t
Angriffs
Glocken
##Ã¤ck
##verk
AntrÃ¤ge
##ftiger
##zeichnis
##FC
Kontroll
zwingend
PrÃ¤sidentschaft
sicherzustellen
derartige
##ueller
##russ
Ruhr
Baus
lasse
Apost
Schott
Abschied
##stuf
Betreuung
Ã¶ff
##drÃ¤ngt
WÃ¼rzburg
##ssitz
##gier
##anst
diskutiert
##kommun
vertrieben
##ogan
BrÃ¼cken
nordwestlich
schwei
##karte
ergab
Fahrrad
Ã„gypten
##verteidigung
Basiszinssatz
##DAP
Fab
MÃ¼ll
rechtzeitig
##Druck
Ã¤ndert
SÃ¤ngerin
##Ãœber
##sse
geschlossenen
##idar
##eitungs
kaufte
daneben
gemessen
Ã¼bernimmt
61
Stufe
Finger
##Platz
Instanz
Daraus
##fÃ¶rderung
vorzunehmen
##grÃ¤
##rÃ¼stung
Schreib
Bistum
##spektive
Schicksal
##runden
Solche
bestritten
##rut
Bulgar
Prognose
Sperr
##werbung
guter
Bio
1902
##formation
##kommission
##schenden
##Jahrhunderts
Verbesserung
Amateur
##prÃ¼f
##uhren
##Ã¼ssig
##hÃ¤lter
##schrau
##paratur
Reiter
Empfehl
03
##weiler
Briten
##waren
And
ol
##teln
Soz
Klosters
##gypt
Manche
VerÃ¤uÃŸer
##zulassen
##asten
Verbrechen
##fehls
dram
krie
bezeichneten
##orb
##klage
Irland
##kern
innen
Pok
Tot
achten
Abkommen
72
positive
liefer
##beteiligung
Einwohnerzahl
Mid
Pfarrei
traditionellen
Bele
anwend
Lange
Sachen
Amster
##BGB
Kie
SpaÃŸ
Befreiung
angewiesen
GerÃ¤t
10,
Bush
dauerhaft
womit
Ferien
Kriegsende
##leisten
##monat
ansonsten
##herapeut
Lam
##gebend
Kader
Bundestags
##unc
Law
Sec
Rats
erbr
Missbrauch
Ministerium
theoret
hilft
gelangt
struktur
Beschreibung
alter
##weil
Berechn
##hÃ¤ngigkeit
##bergs
enger
##ebene
Territorium
Verluste
Kontra
Grunds
Wirksamkeit
FGO
Redaktion
Ã¼berschritten
norweg
Peking
1848
##holm
Sir
##ritter
Kaffe
##aufwand
Stadtrat
Lands
##telligen
##IC
Alarm
jÃ¼ngeren
##Ã¤nomen
enttÃ¤u
Ã¼berprÃ¼fen
transport
##GmbH
lokalen
durchsetzen
##schulden
##fo
9,
Hem
Erhalt
ernannte
stammte
Bundesamt
leg
bewegt
Sollte
##Amer
##inent
##roh
##besitzer
Verletzungen
Â§9
##holungs
Mitteln
Beratung
Arbeitsmarkt
Probe
##familien
beschÃ¤ftigte
hÃ¤ufiger
##posten
##dat
Bomben
gefolgt
East
##rachten
Association
gefragt
Einwander
##Gesellschaft
Abstieg
##anie
Mak
Lake
##streits
##instrum
##streifen
gefÃ¶rdert
##alteten
##geboren
##yan
Niederlande
Pokal
##BM
Konserv
1880
##olo
Maschine
Behauptung
Betriebsrat
##GG
##Mo
##raums
Funk
Roth
Bischofs
gewissen
Cr
Absicht
Ã¤uÃŸerte
##ungsvertrag
##mung
Kim
begeister
##erve
gewÃ¤hren
Berichter
Adel
MÃ¤ngel
geprÃ¼ft
Regionall
##rein
##marsch
##verteidiger
##xtrem
kÃ¼rz
event
Jahrh
Stationen
StraÃŸenbahn
##ogramm
##betriebs
##wendet
reden
##herein
Ross
Erster
Bildhauer
heiÃŸen
Zuletzt
##strahlt
Dienste
##hÃ¼
BedÃ¼rf
##innung
Strafe
##All
Modelle
Ausstattung
##sturz
Tank
install
##bÃ¼ro
aaO
able
Erich
Zeitungen
##behalt
##sverl
Strand
Katastrophen
##Sta
##iot
##Ã¶ger
interessiert
Kalten
##reibungen
bildeten
entsprechender
Ordens
##gutachten
##Form
Lieb
##gÃ¤ngen
Geschw
Mailand
besonderer
medizinischen
Prim
RÃ¼cksicht
##eilung
##well
##ault
Brut
Julius
##schiffe
gedreht
##beitrag
##verhÃ¤ltnisse
##lÃ¤re
##athon
##itels
##unternehmer
selbstÃ¤ndig
Ã¶sterreichische
Rent
##hans
erzielen
AngehÃ¶rigen
Seg
##chtet
Oliver
Rend
##lechter
##aufsicht
widmete
Cann
Brown
Ã„uÃŸerungen
##schall
##arbeitete
Assistent
##banken
fortan
Kul
##mert
##ova
Sorge
##andten
##ennzeichnet
3000
##ransport
Krim
##asch
Mei
##grenzung
##hleten
abgew
Schwarzen
##icherheits
##kamp
Mercedes
ersetzen
beher
unzureichend
##gru
##Ã¤mpfung
Barbara
Pel
##Ã¤chte
verzichten
mobil
GewÃ¤sser
##hrop
ErschlieÃŸ
Sy
Clin
Anklage
Rz
##hmann
ausgebildet
bezahlt
##umin
##sendung
Bereiche
unterlag
Lust
meinte
Manfred
##ungsverhÃ¤ltnis
##planung
Landrats
Ã¼bersetzt
bewertet
##jenige
##ativer
Belange
Stattdessen
umgebaut
Hinsichtlich
##sz
##Ã¼stet
##auftragte
relevan
basiert
##ausstellung
Friedens
GÃ¶
Griff
Anbieter
Sanierung
entscheidet
erlebt
Pierre
##Ã¼ler
Academy
eingeschrÃ¤nkt
Monte
##utzer
richtige
NatÃ¼rlich
Ev
Normen
Gesetze
begangen
##ages
Telekom
Kathar
British
geringe
Infanterie
Rol
Genehm
ausnahm
She
##ness
Anpassung
##icherheit
##lieferung
##CSU
fern
##usstsein
Edel
Element
FÃ¤higkeiten
fordern
##issions
sowjetischen
##IP
##sicherheit
StÃ¼cke
##Ã¼ndung
##gerichte
Hamm
##lasten
bezahlen
Town
##nacht
rief
##verstÃ¤ndlich
Mitgliedstaat
Wehrmacht
Derzeit
Eng
##idenz
Pas
##vereins
Dritter
##ildert
##wertungs
leichter
##gliederung
Botschafter
Williams
schriftlich
gelangte
##worten
konstru
##bÃ¼t
Wettbe
HÃ¤uf
vermag
zeigten
Beachtung
kÃ¤
##."
angem
us
Riesen
##don
##onto
Abzug
optim
voneinander
4-
Mengen
##lla
Premiere
Fur
##zeugs
##iro
Nar
##kran
Indiz
Wellen
freund
Christen
Kupfer
Jud
##US
Merkmal
denkmal
direkten
verliert
auÃŸergewÃ¶hn
verbessern
richtigen
Behandlungs
BR
##kenntnis
##omÃ¶glich
Past
Merkmale
Francisco
beschÃ¤digt
##ainer
##Ã¼hungen
##risch
versorgen
##arke
##enseits
StÃ¤rke
stelle
ehrenamt
Lor
1850
##bestimmung
##ussia
Schlei
expl
versicher
erlÃ¤u
Aspe
Nachricht
einstweiligen
Promotion
Rechtssache
IC
##vertrags
wÃ¤hlen
vorder
Kompl
Eier
##bour
Sowohl
Geschwindigkeit
spezielle
Columb
Beste
mm
##tin
2:
##iene
##gÃ¤ng
Beat
Siemens
Gewinner
##belastung
##syl
##Nord
##lenz
fÃ¶rdern
##plÃ¤tzen
##steile
Nomin
Santa
unterstÃ¼tzte
Alben
breite
##chan
Wood
Grupp
XI
WÃ¼rdigung
Ã¼berlassen
menschlichen
##zins
McC
Landtagswahl
Investitionen
##agten
##ugoslaw
Signal
fert
Koordin
Betroffene
Bundestagswahl
lÃ¶sen
Commun
##ierender
Bochum
##lieÃŸung
##aissance
Register
##gelten
##pack
(Â§1
stÃ¤dtischen
Versicherung
You
Penn
##lÃ¼ck
Bachelor
Anschlag
jÃ¼dische
nachtrÃ¤glich
##bevollmÃ¤chtigten
Ut
##drohung
##hÃ¶fe
Amtsgerichts
Fels
##zurechnen
Plast
Asylbewerber
##hamm
etc
Alexand
abstra
Krebs
Grundlagen
##igar
##lebens
Gemark
##reut
RÃ¶mer
##verbindung
bedroht
Ferr
##BSG
jetz
Beleg
1898
Ermittler
##ube
MÃ¤nnchen
##hebt
politischer
##fÃ¶rmigen
Sign
##stermin
##aria
95
Wirklichkeit
erfolgreiche
Scott
Grem
feststellen
##krÃ¤ften
platz
AusfÃ¼hrung
##hungs
schlÃ¤gt
Dynam
Kohle
##KA
##erz
Zentralb
##wÃ¤nde
##amente
Konf
##oul
##alit
Cam
##feind
##,"
wirft
Zuschauern
angegriffenen
##isl
Rap
garant
erleich
Seinen
Stadtgebiet
Gewerkschaft
##tags
##meldung
einsch
Bam
Abgaben
lan
##izont
Anst
Bisher
krank
mache
beschlieÃŸen
##schÃ¼tzen
##GrÃ¼n
##genannten
##ugies
##dorfer
Rostock
solange
Haar
liber
##gespielt
gestanden
##hier
dicht
gelb
##altar
##orpor
##astet
bestellt
fehlenden
##JÃ¤hrigen
##jon
Rub
Knochen
##usalem
wandte
##gefangen
##hart
Â§11
1896
##ariat
Kell
Diagn
##lech
wusste
##orff
##alyse
##ungsbereich
vorerst
tÃ¼rkische
##idae
Enkel
##ope
##tretern
##recken
##fsweise
Auszeichnung
##teilungs
Bundess
Hunde
GebÃ¼hr
SÃ¼dafrika
##hilfen
leer
unters
diverse
ZÃ¤
militÃ¤rische
##stanti
##kreisen
Beihilfe
VerÃ¤nderung
Entsprechend
inszen
Strukturen
Coll
##Ã¤chter
Betrachtung
produzierte
##lÃ¤ufig
kritisierte
Ped
##lefon
freilich
herunter
##weiÃŸ
##version
Schiffs
##mod
vergleichsweise
Has
Attent
##inz
##andeur
Reste
Ã¤nderte
Konzeption
Anfangs
##schild
feiern
##iteratur
##forscher
vergrÃ¶ÃŸ
dahingehend
verwendeten
Pause
vereinbarten
##fassungsgericht
Ortschaften
vorlÃ¤ufige
Fernse
tiefer
##aal
Felix
Tabelle
1895
##ildeten
reagiert
Rail
##sprachen
vergangen
##tÃ¤
gefangen
schott
angrenzen
##fÃ¤hige
##zemed
gewÃ¼n
##lab
Oran
attra
##brÃ¼ck
Label
Versicherten
diesbe
bedient
##stÃ¤ndigkeit
##aga
##amentlich
##erung
gutes
offene
Spieltag
illeg
##03
KÃ¼nste
##ofern
reichte
Kindheit
##otograf
##ikum
BvR
Ecke
##verkauf
Branchen
GefÃ¼
Zeugin
einheitlichen
##alerweise
##stÃ¤tigkeit
##nr
aufnehmen
rechtskrÃ¤
##oni
##vens
##lasse
Erstmals
PlÃ¤nen
##Beschluss
Vorteile
##hlt
##herstellung
Trainings
Potsdam
Technologie
##ieber
voran
kap
BÃ¼ndnis
Aktie
det
gefeiert
##rufen
streiten
Unterkunft
Bres
subjekt
Arzneimittel
Albrecht
raus
reiste
direkte
pausch
gemeint
heiligen
lebenden
meistens
##samen
Benz
Hammer
Distrikt
Kontakte
kompon
eigentliche
VerkÃ¤
DÃ¶rfer
Speicher
##deutschland
Wahrnehmung
Riv
famil
##betriebe
Interpret
##nd
Corn
Nahrungs
Well
##nutzung
Eingriffe
Innerhalb
##bene
Tob
Cra
verbind
dest
KZ
##legende
erhÃ¶hte
Bauer
symbol
##bal
sonstige
##auffassung
##lein
##bindung
##antie
Maur
##einigt
NSDAP
Handlungen
Urkunde
##gemacht
##ugt
Lee
stÃ¤rk
##anischer
engagiert
Kohlen
gefahren
Dur
behinder
##Mag
Nein
Kilometern
notwendige
sorgt
bekanntesten
##ickte
Reh
Frie
klingt
Helm
##fahrzeuge
Stars
##.2002
##Ã¼tt
Rak
Vertrages
##rechtlicher
##reste
##bald
orig
inneren
Tiefe
##AS
##ynast
Wohnsitz
##verantwort
Rechtsstreits
Leichtathletik
Claud
RealitÃ¤t
##ito
teilt
wirk
genutz
Londoner
%.
Rauch
##Politiker
Amsterdam
befest
isol
##achse
##kÃ¶nig
KÃ¼nstlern
zusammengef
Kok
ei
Gehalt
Alp
Las
unterschieden
##semester
Webs
##stoffen
Messer
##Com
rum
Links
##fÃ¼llt
##versicherungs
Mond
Skla
Sechs
OberflÃ¤che
Berlins
funktioniert
##vas
erneuten
##kin
##frÃ¼
##nischen
Net
Arts
76
##hain
##mosphÃ¤re
Schicht
##ners
Nicol
Arthur
genaue
EZB
##atter
vorgegeben
Gesellschaften
abermals
aufeinander
##ns
Bull
##klusive
beurteilen
halben
Offizier
##eigentÃ¼mer
##gebirge
##Ã¼re
Kai
Dritte
Skulpt
unmÃ¶glich
VGH
##archiv
erarbeitet
##gasse
Micro
Gedenk
kostet
##istet
fehlende
Antrieb
##ikas
EG
##wall
unbekannt
##antrÃ¤ge
betreut
##yc
##stift
Ford
syr
71
Nick
we
Stol
verursacht
Mr
JÃ¼n
steiger
eingegliedert
Luxemburg
##brem
nutzte
##TO
Bronzemed
##Ã¼tten
strateg
##feuer
brasil
schwarze
##07
##hai
##feier
berichten
##WM
##kette
genauer
##gg
##helfer
Dorfes
100.000
vorgeworfen
christlichen
##zulegen
Kriminal
insofern
##uble
78
Aqu
Ot
streitigen
##hÃ¼ter
Bour
angewand
##hold
herbei
Eil
bloÃŸ
RÃ¤um
##unfall
##Fest
Bade
voraussichtlich
StPO
##sprÃ¼chen
Eig
Fro
##igsten
bewill
Halbinsel
Armut
##At
falls
Technischen
Soph
##sextrem
Konkurrenten
Schulz
Venedig
74
##ology
##illerie
Kommando
Also
Kardinal
gewannen
Ã¼berzeugen
##ympath
angesprochen
##Fahr
##verd
zivilen
Int
kommer
jeweilige
automatisch
Installation
##svertrag
KÃ¼hl
verpflichten
HÃ¼gel
mittlere
##Ã¼rzte
Blei
##ardo
Fusion
##aufgaben
schlechten
##uay
Tru
sinnvoll
mod
1897
akadem
##verbrauch
Millimeter
errichteten
herangezogen
Definition
Final
Einhaltung
##Ã¶pfe
siehe
beruhen
entworfen
real
##Alb
Deut
##ehren
##alom
73
beobachten
Brunnen
vorrang
jahrel
starben
Abstimmung
beraten
Hundert
##ienz
##ansprÃ¼che
Geschehen
Ray
GrÃ¶ÃŸen
##reichung
Sens
##konstru
anschlieÃŸenden
Luxus
##Europameister
Argentinien
Siegen
Kommunen
geÃ¶ffnet
Formulierung
##/16
##archie
Festlegung
Vize
Spenden
PC
abend
##asp
Bildern
##verlust
##eitigung
##utbar
##ieht
WÃ¤l
Jones
Einspruch
##vide
##rechten
befasst
Patri
Jena
##Jo
##hedr
##fache
##Ã¶mm
##folgung
bedeut
umfassende
Tageb
##durchschnitt
##Ã¤fts
Lew
LB
Regelungs
RumÃ¤nien
##mor
##arta
##ioren
Bernd
zustande
engagierte
fragt
##bleiben
portugies
Infl
Legen
Mario
Neuse
geprÃ¤
France
##geschlecht
Heck
SchÃ¼lern
##Th
Tirol
##festsetzung
Football
Hauptrolle
KÃ¼che
##verlauf
##zylinder
Malerei
Borussia
glaubhaft
ErwÃ¤hnung
Effekt
SozR
##ituationen
Zell
Eigentums
##lÃ¤sst
##Konzern
##Cup
verstorbenen
##uver
##greif
JÃ¶rg
gemeldet
PrÃ¼
##Schule
umgew
Distanz
Ethn
erlebte
verstoÃŸen
debÃ¼t
bedeutende
Cur
minder
Demnach
geleistet
##Stiftung
Kanzlerin
##ozi
Wis
##ichen
1871
Konstruktion
kommerzie
Investment
##gige
Koblenz
gestern
##fung
vollstÃ¤ndige
5000
EuropÃ¤
##dichte
Duis
Prozesskosten
nÃ¤chst
unwirksam
Vern
Pension
##osex
normalen
Sul
Aufsicht
##seitigen
wÃ¶ch
Exemplare
Hang
Dublin
##liegende
##stitu
JÃ¤ger
beigesetzt
Landkreises
##ray
##ydro
##Ã¼hmt
Bundesinnen
britischer
##vorsitzenden
Bargeld
Gunsten
Fan
Tun
Twitter
Mittelmeer
geschul
Aufsichtsrat
unber
Normal
dokumentiert
##owa
Betriebsver
##ript
Mechan
Tokio
##ibil
natÃ¼rlichen
ukra
AuÃŸ
Heimatstadt
##wein
Serb
Erwartungen
##reistrÃ¤ger
Thron
Reichstag
grundle
Amtes
Kandidat
Ã¤uÃŸeren
##tere
##wÃ¤lte
Krone
##entwurf
##Pol
Loch
##loh
Freiwill
vermittelt
Zeitschriften
##vÃ¶
Seen
Telef
##branche
##zession
##ree
Schadens
fÃ¼rs
Wester
materiell
versuchten
Neun
Tatbestand
##versuch
96
##fuhr
Erscheinung
##winkel
##risiko
Mineral
(6
##post
Cru
Liv
##oir
##rektur
beenden
##elie
##weihe
auslÃ¤ndischen
vorgeschlagen
##05
Gesichtspunkt
KÃ¼r
##denkm
Becken
Ful
sehe
Jerusalem
Heeres
Beratungs
BevollmÃ¤cht
##rechter
Becker
##widrigkeit
stattgefunden
##hÃ¤ngen
erfÃ¤hrt
Arbeitgebers
arg
Frankreichs
Konsum
ausgestellt
Wart
##ello
Friedrichs
betreffend
##stiegen
##odie
##unterhalt
umfangreiche
Tay
vornherein
klin
Leipziger
##praxis
mangeln
brachten
iS
GehÃ¶r
##gements
##eldungen
Doping
MaÃŸstÃ¤
wenigstens
herrscht
##gener
##uerei
belieb
Nachteil
Blumen
##akon
besseren
Arnold
gesperrt
##imp
setzten
vielfÃ¤lt
##/05
##gÃ¤ste
2003,
zweites
Regensburg
##urlaub
Reiches
Haushalte
gewÃ¤hrleistet
Besatzung
komment
##igste
GÃ¶r
Extrem
##maler
Freunden
##zeichneten
Viertelfinale
zurÃ¼ckzufÃ¼hren
Zo
Kund
StÃ¼rmer
Amb
einzelner
Null
stattf
Verbreitungs
befindlichen
##issionen
##Bundesliga
##AF
Ret
##trieben
Glaubens
Dialog
Chron
Laur
erkennt
bloÃŸe
trag
##maÃŸnahme
erzeugt
##skirche
##ids
##leut
Verk
syn
niemals
##weilen
Putin
schien
Ausgleichs
##kassen
geweiht
RechtmÃ¤ÃŸigkeit
##inos
int
betreiben
Ã„nderungs
geforder
Pic
Major
##ulierte
##ausgaben
gekennzeichnet
##hodox
Yorker
festen
beliebt
zusammenge
##4-
##estra
##delte
1893
Mehrere
##hab
Flan
Reparatur
##derten
Entlassung
##anspruchnahme
Erwerbs
##abschluss
geleitet
##politischen
##ritts
inhaltlich
Komponisten
fÃ¼hre
ermordet
##riffen
FrÃ¼her
Ã¤hnlichen
grundsÃ¤tzliche
##listen
Inkraft
##Ã¼ÃŸ
##schull
beklei
88
Are
Keine
Spekt
zeitlich
Rainer
lande
##randenburg
""
Absol
sodann
##mangel
Boston
Systems
Prozentpunkten
##inuier
##alth
Â§13
Viol
Handy
Angelegenheiten
##umph
Verlags
##Dem
Mang
##geschicht
##kÃ¼ndigung
##lausel
##Ost
Harry
States
Meinungs
Blo
fungierte
Gil
##gesetzbuch
Folgezeit
Freude
Krisen
##_1
Texas
GlÃ¼cks
gekauft
Fert
Nachlass
wahrgenommen
##gebietes
angehÃ¶r
entscheidenden
VO
Schwimm
angestre
##Ad
##kapelle
sechsten
Schil
bestimmter
##Tour
ermittel
##osse
japanische
PalÃ¤st
begrenz
Kinos
spanische
Trauer
HÃ¤ndler
Gir
Langen
evangelischen
EmpfÃ¤nger
Institutionen
restlichen
KapazitÃ¤ten
nation
##aÃŸen
gewinnt
##meisterschaften
##Werk
Trier
Hut
Pseud
##fÃ¶rmige
##ili
Â§15
##He
[unused_punctuation19]
News
weiÃŸe
##AN
##:00
BÃ¤ume
Sportler
Dokumente
##redaktion
Angebote
vorstellen
einher
finanziert
GegenstÃ¤nde
hielten
ArbeitsplÃ¤tze
##rent
##ason
mitten
##Ter
Studiums
eingeladen
zuzulassen
namentlich
traditionell
##08
Alte
gefasst
##grundstÃ¼ck
##lÃ¤ndischer
RÃ¶m
Auftraggeber
##pause
Helden
##eutnant
gerechnet
drÃ¤n
Glie
##mechan
##Man
bezeichnen
klassische
Act
Erdbe
Hugo
Spiels
Werkstatt
unseren
eingestuft
wunder
##ignal
##zahlten
AT
Opel
Hilf
Ensemble
##ikern
fÃ¼hlt
Mans
gezÃ¤hlt
Bahnhofs
##sÃ¤chsischen
AusmaÃŸ
##parks
Fassade
kombin
Dresdner
ordnungsgemÃ¤ÃŸ
SekretÃ¤r
Ga
typischen
Som
Inse
##lÃ¤ttern
Mischung
Feier
##oli
##litz
##warf
Ts
##eistungen
Wohnhaus
betrieblichen
##sprachige
Jedenfalls
##yz
##bellen
VolkszÃ¤hlung
Leder
Schwein
PhÃ¤nomen
##Teil
Kanal
##reife
themat
Netzwerk
dÃ¤nischen
speziellen
Kel
##verwalter
gegenwÃ¤rt
##nÃ¼tz
geÃ¤uÃŸert
zwangs
denkmalgesch
verlegen
dauert
##:201
##Recht
##ulden
Inneren
Vergleichs
##Mon
##gleis
##manager
Hallen
##otiv
Runden
Taten
##aya
##eta
Klim
DiÃ¶z
##studien
Luther
##klen
schriftlichen
##echter
Einigung
erlitten
##ivals
##verteilung
##denkmale
##fahrts
Befra
##rekord
GÃ¼nther
berÃ¼hmte
erledigt
Eta
##marke
Nachmittag
##bÃ¤
aufgeb
gewÃ¤hrleisten
##ads
##ovo
Ãœberleben
Konjunktur
##zeuger
dienten
Tauf
Rande
CO
NVw
Oft
Baugenehmigung
Vul
fakt
erhobenen
##Prof
Knie
maxim
##vorhaben
geschÃ¤tzt
GÃ¼
##atus
##bares
samt
Binnen
Route
Lern
Genau
Scha
Biele
##Vorp
##Bei
starten
keineswegs
##mern
Laub
Berichte
integriert
schafft
ann
Konzerte
Darlehens
Innenminister
Erf
erÃ¶rtert
##Ã¼hlen
Human
junger
##schaffung
Mach
Wiederein
##uts
WÃ¼rttemberg
interpret
aktive
Index
Richtigkeit
MÃ¼hle
##ogn
Goethe
Verurteilung
StÃ¼tz
Soldat
##asa
engen
Verteilung
Virgin
Bauwerk
ausreichender
##aks
11,
korre
demonst
fikt
gefÃ¤hrlich
Vikt
Ausbruch
##antin
##Ã¤hern
##prinzip
beinahe
preis
womÃ¶glich
##eigung
Staub
Ausscheiden
Metz
debÃ¼tierte
Ky
Ã¶k
umso
Berecht
besuchen
Maximilian
religiÃ¶sen
##organisationen
Abbau
##gebunden
unterliegt
umfassenden
Such
##tau
##ladbach
##quellen
##stÃ¤ndiger
kaiser
ausgestrahlt
Klagen
beruflichen
Konsequenzen
schn
meldete
Rechtsbe
##oppen
##Ã¤hren
##drÃ¼ckt
jÃ¼ngste
vorkommen
anim
Hochzeit
Aufstellung
ZulÃ¤ssigkeit
Anbau
##Ã¤chtnis
Christus
##bundes
##ete
##nab
##alismus
eingebaut
positiven
Abfall
Tieren
Vordergrund
erheben
##bec
##lÃ¤ufe
##zirke
abgebrochen
Inkrafttreten
dis
deu
1892
Inf
##hÃ¤ngt
kanadischen
Hass
Baron
##zentrale
Vorfeld
einver
nutzt
leider
##stechnik
##acken
Kun
##iments
Urlaubs
ehemals
##BVerfG
verlang
##Haupt
##storben
trafen
##oire
Sturz
Senioren
##sverhÃ¤ltnis
verzeichnet
sahen
auszulegen
##RK
Ã„l
anlegen
Juris
beteiligte
Hung
Hagen
Heide
Kantons
regionalen
objektiv
##kov
Finanzminister
bezog
nachge
##schlieÃŸt
Abm
##kg
Orch
Synag
organisierte
##stÃ¶ÃŸe
aufweisen
##EL
##ietung
Partien
Nikolaus
lehrte
Konstant
##becken
Jar
Dire
##anze
Dou
##Ã¼sten
Berge
Spielklasse
##Su
##ingu
Hay
Erben
##angriff
Ursprung
mo
Bevor
weiten
vertritt
Inanspruchnahme
##feln
##fahrung
einbezogen
##lach
fehle
erschossen
Quadratmeter
##flex
ausgelegt
350
Pion
Anzeige
beschrieb
##hlon
Einzug
PrioritÃ¤t
Geschichts
liefern
Versuche
unterbrochen
Umzug
begrÃ¼
Moritz
SÃ¼dwest
Ero
Liebl
##atorin
##portal
bedingt
vorzubereiten
##irchen
##zeitschrift
Hob
##illen
##ausgabe
vielfach
Zie
##leutnant
##geschÃ¤fte
SachverstÃ¤ndige
##BB
##itee
##anni
##hafter
Wiesen
##politische
ww
##tausend
Haftung
problem
##Vert
##Fraktion
Anstieg
##formationen
WÃ¤hrungs
kontinuier
www
Budap
erb
ausgeÃ¼bt
Toren
##zentrums
##arett
schlossen
eingeweiht
Piloten
##grundsatz
##gesagt
natÃ¼rliche
Rechtsan
Fu
Â§14
Spielern
ausgerichtet
##iness
##gow
Satell
dauerte
Wach
HÃ¤nden
##vÃ¶lkerung
Gon
##erium
1894
Galerie
##etwa
grÃ¶ÃŸtenteils
##fektion
verwirk
##New
Agr
zusammengefasst
##gerichtet
##ladimir
vorbereitet
##plomat
nationalsozial
do
##ctic
##ustr
Schein
KlÃ¤rung
schlagen
##berechtigt
abgelÃ¶st
##steuropa
##Ã¤lte
steckt
gewid
wiederhol
trans
Festung
ausgelÃ¶st
erkran
AngehÃ¶rige
Caf
##angaben
Stufen
Urheber
HÃ¤rte
##mittels
##ahme
##Wil
1:0
Valle
Befrist
Abgeordnete
ethn
Motto
##komplex
Ausgangs
freiwillig
##luft
##quid
Onkel
WÃ¤rme
Ã¶konom
finn
Roland
Bescheide
##drom
##prÃ¤sid
##sbruck
##TS
Sind
##ementen
Widerrufs
Olympias
Ungleich
Lebensjahr
##mÃ¶
##leib
Sorgen
##mas
##aufent
##ifest
beinhaltet
##alin
Jury
Gedicht
anderweit
##adi
##Vorsitzen
amb
##ypen
1.1
Obst
gefertigt
##rÃ¤der
1885
Napole
richtete
schlicht
Kindergeld
##schel
##ennungs
Porsche
Vereinten
ank
LÃ¼beck
Nachkriegs
##mil
verlÃ¤ss
Nachteile
99
hÃ¶rt
Linden
Patrick
Stipend
einziger
##konstruktion
hom
stÃ¼r
Winkel
##kreise
##zeitraum
White
Kommunikations
Viet
entdeckte
##oldungs
Spreng
gefÃ¤r
GÃ¼nter
##-1-
##regeln
##Ã¤le
NVwZ
##istanz
##Don
Allianz
##Vorpommern
##rus
##wirtscha
##wohnung
Zauber
geschafft
DVD
Hed
Veranst
Renaissance
folgender
Baby
##arisch
Legisl
hilfsweise
herab
binden
BeschrÃ¤nkung
##tagon
##inderung
##uÃŸern
1800
zweck
Betrages
##Arch
##aster
##kol
##pool
##Ã¤tzungen
##ody
wirks
Meisterschaften
##Mana
RTL
##management
##quert
klÃ¤ren
##behinder
Verzicht
siegte
BN
Auflagen
##OC
begÃ¼nst
##ista
Erbe
Kenntnisse
##vern
##werbst
##Gemein
lieb
##passen
##etti
##hau
1889
##grÃ¶ÃŸte
Teils
##imetern
erteilte
##vorschrift
Arbeitsgerichts
##Vol
##bescheids
aufzunehmen
fried
doppelt
##national
restaur
Gh
suchte
31.12
Teuf
unverÃ¤ndert
Zusammenschluss
12,
Besatzungs
##deckten
Regionalliga
Bronzemedaille
entfallen
Student
##weisungen
Oh
Smartph
aufgefordert
##mol
spann
##lastung
Exil
ZerstÃ¶rung
##findet
##iffen
Dachau
polnische
zugewiesen
Falls
##reffend
ausgewÃ¤hlt
##schieÃŸen
Grei
gesucht
Streifen
antreten
anwendbar
Ãœberlegungen
BlÃ¤tter
HÃ¤usern
Schulter
bedeutendsten
Witt
Sper
meinem
Redakteurin
materiellen
##Ã¶rten
Kolonial
Bergen
groÃŸem
##Sc
Feststell
umgewandelt
##Inter
##gebenden
##HC
##mode
##figuren
Andererseits
##Plan
1888
##Programm
berÃ¼hmten
##Syn
Neuseeland
Unterbrech
##rieg
Road
Profi
##DL
chinesische
Varianten
jederzeit
##sperre
enthielt
Milit
medizinische
unmittelbaren
##Ã¤tten
Hochschulen
Now
##basis
Tschechien
Tatbe
Bauten
Vit
Intens
##bergen
qualifizierte
##serien
Wesen
##suchung
Gemarkung
Vorsprung
Panor
Erziehung
Handwerk
Eth
Arab
Dissert
Auslands
##xid
##Pokal
diversen
Pfund
dringend
##omer
Witwe
enge
Ihren
sicherte
Vermittlung
##otential
Komplex
##rey
Mis
Favor
Samen
Erober
##Ã¤ss
Finanzamt
sofortige
Lein
Klang
Interess
Reserve
##rohr
reform
breiter
##anteile
##zentren
Ernennung
leistungs
##vision
Einklang
warf
sterben
##Ã¼tzte
nachfolgenden
##oter
Amaz
##mÃ¤nn
StaatsbÃ¼rger
(),
##qualitÃ¤t
vorgeschrieben
Landesregierung
##beamten
Ãœbersch
##ungsweise
Straftaten
inwie
Gastgeber
Erstattung
Ausstellungen
Bescheides
Bezugnahme
##bÃ¶
##produkte
Dikt
Ã„mter
Verwir
Innsbruck
Ale
Motorrad
verbessert
unterrichtet
##bers
Krem
falsche
##telt
dringt
Bebauung
Wiederaufbau
Rechen
##stufen
eingerÃ¤umt
Gur
zuver
Vermutung
##beschreibung
Ersch
Antonio
##pflichten
Schwestern
##anke
Fotograf
BundesstraÃŸe
AC
Einfl
Tau
##jÃ¤ger
Line
Andrea
Jackson
##vall
Feind
Internets
##anna
Dekan
##nehmlich
##etische
klare
##register
berechnet
##heitlich
Buches
##General
Ausnahmen
Konferenz
Einspruchs
##erne
##Ã¼hrung
olymp
erwachsen
chron
##onenten
79
##schaden
Gestaltungs
durchgefÃ¼hrten
##chs
Angestellten
Hochwasser
##ores
##Ã¶lbe
##enhagen
vermitteln
entscheidende
##bu
##BGBl
Adler
Einzugs
Versorg
Sprint
vernÃ¼n
##zessin
##hinter
##frem
eingemein
##achus
Leverk
AufklÃ¤r
Verschw
##inental
##ori
##iwod
##Con
europÃ¤
##hallen
##aute
##zucht
getroffenen
##MG
farb
Takt
##gh
##Drucks
##vertretung
##Kirche
Strei
BefÃ¶rderung
Komposition
Opf
##Ã¶tt
befreit
gerufen
##ES
Long
Anhang
schein
Mitglieds
##ediglich
##wesens
Bands
##tÃ¤tigkeit
Durchbruch
##gerichtshofs
##/01
##ifa
##ulieren
##ynastie
erneute
##ania
##flÃ¤ch
##bibliothek
Zentralbank
Freundschaft
australischen
Ãœberblick
Eigentlich
Saisonende
Eines
vol
Zweig
Inhalte
##schreibung
##professor
fÃ¤hig
##PÃ–
Auftritte
##bayern
##morgen
desto
volle
erlÃ¤utert
verteidigt
Nordamerika
##ampf
##steig
Nu
Naz
Funde
##yen
##Gymnasium
##vollstreck
entsprach
##bildungen
gewachsen
Hotels
wander
verschwunden
##mÃ¤h
##uld
##reien
##dukt
Ari
fÃ¼hlen
##Kilometer
Einkaufs
##gegenstand
VizeprÃ¤sident
##raben
Auton
behalten
##IT
identisch
Beschwerden
Tempo
UnglÃ¼ck
Jenn
1891
##felt
1866
schÃ¶ne
Pho
##eiro
1874
##spezif
anstelle
Waffe
Faktoren
Mittlerweile
##aki
##ush
Sed
##stellter
philosoph
Expedition
##bn
verbinden
##aph
hÃ¤ngen
Arbeitnehmers
Abd
##reute
##reuth
gesundheits
vorlag
RÃ¼ckzug
##otter
Western
kÃ¼nftigen
Herzen
##ators
##bewahr
Unterbringung
Vieh
Kontext
Hex
Â§17
##aps
RÃ¼cknahme
##same
Theat
vorhandene
Kreises
erbringen
Versammlung
BB
durften
Abschiebung
Temperaturen
##Muse
##itis
##prot
##riet
Graz
Neustadt
##empfÃ¤nger
beklagte
veranlasst
Joe
##tellekt
einzus
##pot
##RG
Fi
Leo
scheinen
Oldenburg
Abschiebungs
unterschrieb
##.6
Dietrich
##verbindungen
Jord
Jubil
##behalten
bewaffnete
Brook
Meine
##bard
##gott
##plÃ¤ne
##atorischen
verdienen
##oro
##beln
Vel
##psych
Ã¼brig
Woiwod
Umfrage
Zigar
geringfÃ¼
##kilometer
##schwung
Schwanz
anhalten
##Bar
##emin
Nest
##Trainer
##ific
Bibel
##ifizierung
Moderne
kritisch
EntschÃ¤digung
##deuten
Erleb
Export
##beitrÃ¤ge
Systeme
Florida
Verdienst
##ormen
##Ã¼chte
Mike
GroÃŸher
auft
abschlieÃŸend
emp
##haven
##bels
quer
aufgeteilt
lÃ¤nd
##imente
Julia
Vermeidung
Reinhard
Att
##bereichs
Sachverhalts
##zutreten
82
schuld
Wurzeln
verhalten
Krankheits
deutliche
##landschaft
verfolgen
Behinderung
Lediglich
Marketing
Prop
GrÃ¼ne
##Ort
##gon
Ei
Leb
Barock
##etischen
Oze
KÃ¤ufer
Treppen
Kaufmann
Erwachsenen
zufÃ¤
##Ã¼tzten
Kommandeur
##ektor
Reichen
Verweis
liefert
Dal
finde
##Ã¤rter
Mini
bedÃ¼r
evangelische
Dokumentation
2002,
Katharina
Verpflichtungen
Risik
Problemen
irgendwann
griechische
trugen
##lok
Out
##opfer
Profil
Statistik
##rtner
beacht
##garter
##regung
prim
Kaffee
Zuordnung
##bescheide
##serklÃ¤rung
differenz
Got
Rav
Ura
##funden
Motoren
Finanzen
86
##stet
gÃ¼nstiger
##onia
##illon
Neuf
genehmigt
Kriegsgefangen
detaill
falschen
##rahmen
##kind
erlitt
##soft
eingezogen
Grundschule
wahren
##Ã¤dte
##ologischer
##vergÃ¼t
Petersburg
##wickelt
lÃ¤ngeren
angepasst
stet
verteidigen
GieÃŸen
##ives
Bundeskanzlerin
Juan
##wÃ¼rfen
reine
##voraussetzungen
sang
passt
##hologie
erzÃ¤hlen
beschÃ¤ftigen
Honorar
##Ã¶rderungs
##treffen
usw
Chris
Kleidung
Dorn
##VA
Syd
Temp
##bom
##saal
##ffekte
Pflanz
Down
Solo
Vorrats
glÃ¼cklich
Manchester
holen
behauptete
Bruno
Florian
Rektor
beweisen
##teau
bejah
Johnson
gebeten
##RS
##obte
Dram
Eugen
Kampag
Unterhalts
gepf
Zustellung
##iban
halbe
##geschÃ¤fts
Sprecherin
erhÃ¤ltlich
83
900
Lichten
Bundesfinanz
Herrscher
Erdgeschoss
aufgel
##laufenden
Fahrten
stÃ¤ndiger
3,5
##ministrat
VergÃ¼tungs
Ausstellungs
##block
Dick
Send
##manischen
##RL
##phy
##schnitten
Buchstaben
Fahrerlaubnis
Inschrift
##Ã¤ure
Clinton
##gÃ¼nst
sieb
Graben
beeintrÃ¤chtigt
bemerken
KÃ¶rp
archÃ¤
##essungs
Anfrage
niedrigen
84
##grupp
##kÃ¼nften
SÃ¤ulen
belastet
Metal
##unker
##unnen
Explos
##ni
tour
##Rennen
Mandat
Ludwigs
##inson
##trÃ¤ge
##Projekt
##izieren
##gei
zutreffen
technisch
##dh
Benn
##0,00
Fertigstellung
##ides
Agentur
verlief
Finnland
Leverkusen
na
Cop
##klÃ¤rt
radik
Ali
##lenkung
stimmt
##atze
flÃ¤
streng
Korru
ausgede
Immerhin
entscheid
Nutzen
italienischer
##HG
Pian
##zutreffen
EinschrÃ¤nkung
substanti
##ippe
Athleten
Kirchengemeinde
##ingham
##Bay
aufschieben
Jede
Marcel
greifen
Vari
FlÃ¼chtlingen
##izen
##umpf
Richtlinien
##dlichen
##stÃ¤dter
sk
Pav
BemÃ¼hungen
Anleihen
industrie
Ã¶ffentlicher
Produzent
einziges
##bill
##braun
##lafen
Schatz
##loser
stÃ¤ndigen
##bisch
Plus
Comic
##stellern
##ungsbedÃ¼r
mult
erhebt
po
##offs
kurzfristig
##hut
Roger
Schmuck
##gestellte
##itas
##FL
##abkommen
##hÃ¶ch
zeichnet
##ju
##hansa
Ausrichtung
verabschiedet
Allen
Materialien
0,5
Jurist
##club
Letzt
binnen
ungewÃ¶hnlich
98
##delten
Flugzeuge
##ahren
##kter
##onna
Abk
##jÃ¤hrig
schwach
ergÃ¤nzend
##.2017
##ident
Rese
##systeme
gleichwohl
##refer
1879
##ualitÃ¤t
verschÃ¤r
Anf
Rechnungs
Darstellungen
##liegend
Ã¼berliefert
##cial
##shire
Reformation
##board
Strahl
##stad
negativ
1875
##PA
Fit
verzwei
enthaltenen
##sofern
Dokumentar
##rone
geschah
##betracht
geteilt
oftmals
Warschau
##inus
##aszin
##spital
Achtel
VerhÃ¤ltnissen
##niveau
##aillon
Ã¼bereinstimmen
Hinder
Reserv
EinsÃ¤tze
leistete
Wul
##linger
Rezens
##horst
fein
##Verlag
##eigert
##eschrift
##to
##fachen
##igan
Cle
dunk
Parad
innere
Ã¼blicherweise
##hemen
Planfest
Ausgangspunkt
ausnahmsweise
##sthet
prominen
festgehalten
##angels
##gard
Benj
Schienen
##waltungsgerichts
One
##utzend
afr
auslÃ¤ndische
##artikel
##laf
Hauptbahnhof
##schÃ¤den
unternahm
Besser
verlÃ¤sst
##sÃ¼d
##Ã¶rer
herausra
orientiert
Wils
##idi
##Ã¼ller
1872
Hong
Wales
bester
##schÃ¼ler
Raketen
##ussten
##ographischen
##VI
Oberliga
AtmosphÃ¤re
##bereitschaft
##entscheidungen
1867
##NET
pat
Diale
1887
Love
Denken
##Techn
merk
01.01
lit
mat
##Famil
##sylvan
bestÃ¤tigen
##berge
Spons
Vermitt
ausweislich
unmittelbarer
Guts
1884
Vertretung
Vereinbarungen
##Bank
Blues
spekt
fragen
Beding
Dessen
##cer
##flÃ¼ge
81
stre
##Bund
Corps
##einnahmen
Abenteuer
##Akt
##Frei
##gemÃ¤ÃŸen
eigenem
kÃ¼rzlich
##eman
Welche
##stÃ¤tigung
Phot
Ãœberein
Ty
wÃ¤hlte
Abgrenzung
##Ã¤rzte
rechnet
Pin
Lufthansa
##zepte
Uwe
Rose
Budapest
Bergbau
richten
schlimm
Kopenhagen
SchÃ¶ne
glaube
flieÃŸen
##reifer
Walt
ErklÃ¤rungen
Entwicklungen
##antes
Tatort
##Is
##ammlungen
##dra
bat
Duisburg
gescheitert
ents
##rennte
Fehlen
##ifikation
##bevÃ¶lkerung
Vi
##Erst
Konstantin
Kong
Auftakt
Sz
potent
genÃ¼gend
abgeleitet
##schwei
Abwasser
##imes
Seele
##verfolgung
griff
Talent
hÃ¶chstens
##gelegten
Schalke
Power
##oe
##ami
Solidar
##Ã¶pfen
Henri
inspir
DreiÃŸig
##grafen
stil
gemachte
Lehrstuhl
##ruder
Trocken
Sitze
aggress
grÃ¼ndeten
Vorgang
Microsoft
Sanierungs
Verbindungs
##EM
Befehl
##Deutschland
Dissertation
##ymmet
##stem
Lan
Marx
##temperatur
Erstatt
Begriffe
##zit
##here
##kurr
kÃ¤mpfte
vorliegende
Besonderheit
Gutachter
Beteiligte
einschlÃ¤gigen
Seehofer
Bielefeld
Stellvertreter
##League
Vertretern
##Ã¤mme
LÃ¶w
Report
BetrÃ¤ge
##zifik
Konstru
Steiger
Gottfried
rechtfertigt
##amo
Zwang
rumÃ¤n
Marburg
Buchholz
##Sk
leichte
Kugel
kraft
##ikten
##istum
Beine
erwiesen
Medaillen
BefÃ¼r
Bewilligung
Ausgestaltung
##fraktion
konsequ
Hirsch
FuÃŸgÃ¤nger
stieÃŸ
Schottland
##fers
Jens
##wahrnehmung
ihrerseits
Stuttgarter
Zir
Nad
##bury
God
##Bau
##kanal
Ã¼bers
Liss
vollkommen
Starn
Charts
##leiden
datiert
##Ste
Vent
Bundest
kg
##ovon
erhaltenen
eingeleitet
rote
##folgenden
Magaz
mÃ¼ndliche
bedeutenden
Insekten
##Ob
Atem
verÃ¤ndern
Daim
##redite
##werker
##Ã¤chtigen
diplomat
jenseits
versorgt
Sozialgerichts
##Hein
Â§30
Grim
herk
kÃ¼nftige
mex
1815
Nato
Erle
scharf
##zelle
Peters
sens
moral
verfÃ¼gbar
Kann
realisiert
##loch
##spannung
##achusetts
Kaufpreis
Lord
erfuhr
##wachst
Arena
##ertal
Pfalz
exper
##rÃ¤nkischen
Research
##fÃ¤lischen
vorgesehene
sinken
argument
Aspekte
Begegnung
##Ã¼se
##Fil
Typs
##iziner
##02
Veranstalter
##stÃ¤rke
geliefert
##Ã¶pft
Laufzeit
Erhaltung
##bat
Fok
HÃ¤ft
Erfurt
fotograf
##boot
Flu
benannten
##ingenieur
unterteilt
##vey
##raf
Gehirn
##antischen
Einnahme
##rÃ¼ger
ausgerechnet
Neg
Â§154
Schwie
##ankt
##ehme
Aur
##Titel
##Rad
BÃ¼chern
##ava
##rÃ¤glich
##pflichtige
internationaler
##Ind
Abstamm
Reporter
Synchron
bewerten
##eidet
mont
Nichts
Ohr
##ronik
##schee
qualifizieren
dir
##befehl
ungew
Gedichte
geg
##bronn
jÃ¤hrliche
SÃ¤u
##brochen
my
##apelle
##sylvania
##rian
92
##irur
##Wer
##rÃ¤nken
abgestellt
Arbeitsvertrag
##oko
Bag
mÃ¤nnlichen
widersp
##mers
Wachstums
erklÃ¤rten
Einbeziehung
##renzung
BeschÃ¤ftigte
##ee
Force
##owitsch
Sky
##hedrale
derer
Einkommens
aufgewachsen
hob
Fett
##inten
Zugriff
gerichtliche
##esp
##hip
##hop
1868
typische
Uni
Mall
RÃ¼st
91
teilen
lautete
Ursachen
bemÃ¼ht
geschieht
##seitige
##papier
Passagiere
Herzogtum
unerheblich
##.7
Recher
##EB
Gebot
Pilot
##stron
##marken
weibliche
##.15
Saarb
Â§60
Wies
##GA
Bitte
##haftung
##wanderung
##siv
beantragen
BT
jenen
Corpor
##kre
Segel
SchÃ¤fer
Referend
##berechnung
Gefangenen
##habe
allzu
##streben
vollen
##oberflÃ¤che
beschreiben
Kau
##volumen
Landrat
1873
Columbia
Camb
VfL
WÃ¶rter
Gerecht
eingehalten
##abwehr
##ichtag
##nabrÃ¼ck
##amik
##ington
letztes
##had
##ausen
MÃ¼ndung
Kreu
kandid
Dutzend
Komprom
##UR
##rinzip
erzielten
125
##dringen
Volker
korrig
##personen
##duzierung
Verleger
##drucks
jÃ¼ngere
##EN
87
##eitag
1840
Pont
##elf
##betrÃ¤ge
Verdienste
##filme
Beach
##uminium
##ttemberg
##reden
Kabel
##heer
AZR
Niger
Museen
##demokraten
Einmal
##":
##ungskosten
Schwanger
Jura
20.000
##termin
13,
##ontrolle
##fassungsgerichts
denkt
##decke
##denkmÃ¤ler
aufweist
##kos
betÃ¤t
##Ã¤mmer
Anal
Church
##rott
##haut
##eitern
regulÃ¤ren
##KV
eingemeindet
Rolf
Spir
Carolina
SchlieÃŸung
Si
Spanier
##mannschaften
##enthal
Sohnes
hessischen
erweist
##leitungen
##schaftlichen
##besuch
Ã–sterreichs
einiges
plant
registriert
##kÃ¶n
Eigenschaft
##Ã¶ffnungs
##enne
Til
##bischof
Vietnam
zurzeit
verlange
Eva
##brÃ¼cken
Protagon
erleben
Daran
Wolfsburg
konventionelle
log
Wupp
##skomm
Davis
SÃ¤tze
##fangen
Jesus
linke
unbesch
Durchschnitts
##zuhalten
##aa
SÃ¼dost
Anruf
##hs
##tz
Bang
Rechtsgrundlage
How
##geist
Helfer
Liquid
verfasst
3-
NHL
wasser
##schrauber
Stockholm
##hus
##arat
Day
Audi
Inszen
##pflanzen
Mehrwert
##06
##hÃ¼tte
individuelle
##start
##schers
fliegen
##holfen
leistet
Ã¼berrascht
1886
Korn
##rip
Charlotte
erhÃ¶hten
##ti
##beratung
PlÃ¤tzen
verlagern
##telier
Rezept
entnommen
##zz
Rote
doppel
Flach
##steinen
Feiert
allmÃ¤h
##/04
##icherheitsrat
##cent
Hamil
tausend
bevorzugt
mitteilte
erreichbar
historisch
juristischen
populÃ¤r
wiederher
Erziehungs
zahlreicher
besetzten
##04
Ech
Gie
Aster
##ersdorf
Bedarfs
##uchtung
Schull
Zeitungs
##gefÃ¼hl
Deren
realis
##back
online
Norbert
westliche
##ebel
umzu
##tr
baro
##zinsen
typischer
##EFA
##aris
FÃ¤r
Zellen
Generationen
Giov
gehÃ¶renden
##FÃ¼r
Benjamin
Fahrzeugen
1200
Ã„hnlich
##magazin
Steine
1881
Himm
Beurteilungs
Dementsprechend
##itees
Erreichen
##ieÃŸt
MÃ¤rchen
Genossen
Ã¶ffnen
Tschechos
##dition
RÃ¼
##akete
Turb
regelmÃ¤ÃŸigen
##aton
Cab
Provinzen
BeschÃ¤ftigungs
##Em
Depart
##sprinzip
Steu
##quartier
##Hoch
gewidmet
anerkannten
gÃ¼ltigen
separ
Ãœberwachung
Quell
Renov
##journal
errech
##schauen
##ianische
Vorbereit
Sher
##achungs
##glÃ¤ub
##eichert
fÃ¼hrende
Menschenrechte
##Spr
Wann
Areal
human
zweifel
##Millionen
NÃ¶rd
th
Axel
Sympt
Mainzer
##neburg
ErmÃ¤cht
negative
formuliert
EinschrÃ¤nkungen
).
af
Ã¼brigens
begeistert
demonstr
Mitgliedschaft
1878
Perspektive
vollstreckbar
Zwer
Rechtsbehel
2000,
konzip
Zusammensetzung
Vat
Young
Panorama
##mengen
##Stunden
leidet
Evangelischen
betragen
93
Belager
Weihnachten
##spolit
##schneiden
Lokomotiven
gu
FÃ¤higkeit
Kategorien
KapazitÃ¤t
Eheg
Henn
hohem
Rdnr
##spreis
##schende
Cy
1876
existenz
vollstÃ¤ndigen
Nat
Â§12
##archite
##Show
Held
Defen
ermÃ¶glichte
##rÃ¼m
Siedlungen
ZugehÃ¶rigkeit
##keln
angrenzenden
unterrichtete
##dik
Pow
BetrVG
##waltungsgericht
Sor
spr
##eutral
KlÃ¤gern
Psychologie
##ants
##pend
GegenÃ¼ber
klagen
SchriftsÃ¤tze
Treff
erinner
##orchester
Gewerkschaften
Tan
FrÃ¼hl
Fuchs
negativen
menschliche
Besonderheiten
Ruder
##mÃ¤rkte
Gregor
Propag
##stellation
Schaffung
Vollziehung
antwor
##zeitigen
indischen
erlern
Mitwirkung
##StV
##rÃ¤nke
Einwand
qualifizierten
(=
##anter
##fuÃŸball
##Ã¤ÃŸt
Flotte
verbundene
Thor
analys
##-3
##hner
Wladimir
entzogen
##KÃ¶nig
errang
##fallenden
GR
Zweite
DÃ¼sseldorfer
wovon
##wÃ¼rdigkeit
Balt
gezielt
##unterlagen
##perte
1830
##ieu
##deutet
##kontrolle
begegnet
##auftragten
Silbermedaille
##alo
##arma
verpasste
##verse
Hubert
beding
schÃ¶nen
laufende
##nik
Bislang
Entscheiden
gerichteten
Vorrang
Windows
Reformen
Mannschafts
Beweisaufnahme
##the
##phys
Schar
verlaufen
Amazon
Korrektur
bekannter
entstandene
Genf
erhob
Albums
muslim
Zens
Kreise
Ausreise
1883
gehei
##eistung
##aj
##fuÃŸ
##Fern
##agung
##gemÃ¤ÃŸe
TÃ¼ren
Nahrung
##ulationen
SchÃ¼tzen
Wettkampf
Untergrund
Bauarbeiten
durchzufÃ¼hren
1882
##aturen
##portiert
behaupten
##merz
FÃ¤hr
stolz
##merkmal
inklusive
##.19
##gerte
echte
Weiler
drehte
OsnabrÃ¼ck
vorrangig
Geltend
##fia
##visor
treu
Tenden
fassen
##zerne
Pferd
Germanistik
Qualifikations
##bie
##norm
##.2000
##ablen
Vorles
ErzÃ¤hlung
Betriebsrats
renov
Getrei
renomm
MÃ¶bel
Sammel
Breslau
Ã¼berlegen
##franzÃ¶s
serb
schar
##situation
BlÃ¼te
halte
Felsen
Abweichung
##CD
Eric
##etscher
beeinflussen
2020
ziel
Lehen
betrachten
##analyse
##ovic
##Pla
Ahm
##Ã¼ndigen
##.2001
##richtlinie
Pul
##sitzes
##sÃ¤nger
Residenz
arabischen
angesiedelt
##senz
##lines
##pflichtung
##veranstaltungen
##bergt
1862
Bindung
einfluss
fehlerhaft
trin
einfacher
DÃ¼n
stammten
passieren
drohen
unterliegen
DJ
Lex
##aket
##irbt
Tum
##igent
startet
Ortsteile
Leih
kulturellen
##friedhof
regelt
VerbÃ¤nde
aufgetreten
Dozent
Franois
Gerichtshofs
##Ko
##berechtigte
VorrÃ¤te
angehÃ¶rt
##haftigkeit
Ã¼berprÃ¼ft
Goldmedaille
##pil
##unks
Agrar
gedeckt
Schritte
umfangreichen
Bedingung
Lag
Kanad
##mauern
Urspr
##vergleich
Ã–kon
##warten
spektaku
Ã¶st
Daimler
##oldt
##zicht
Darunter
##yball
Innov
DB
verbliebenen
Origin
##ukle
##kasten
##orthodox
Pakistan
##ourcen
Gewinne
Hur
Ware
##oid
##uan
##wissen
##geldes
grÃ¼nen
bayerische
(16
Laus
TÃ¼rken
Wissenschafts
##bereichen
sichergestellt
mitunter
Europap
##alm
##entz
##iction
Beobacht
Regiment
beschleun
Gesellschafts
##20-
##edia
Lewis
Jugoslaw
Virginia
##eilt
lieben
empfangen
##vereinbarung
dorthin
Disziplinar
Produzenten
##sters
Insofern
profitieren
Aar
First
gefÃ¼hrten
lÃ¤ÃŸt
Leucht
##bezeichnung
Ankunft
antiken
AbhÃ¤ngigkeit
Schiedsrichter
##gÃ¤ngig
##platzes
14,
##ssern
legend
Victoria
Entdeckung
##walde
Jeff
absolut
Aktionen
Erdbeben
Synagoge
Kilogramm
Woiwodschaft
egal
Gleis
Jedes
Indian
unzulÃ¤ss
verschoben
##sklasse
Bedrohung
FI
##westlichen
##Red
##fizit
gewÃ¤hlten
##abon
Etwas
einheitliche
##iop
##Division
zeitlichen
0:
##tlicher
vergleichbaren
##anisch
entst
##armee
##athan
##preuÃŸen
##izierten
Od
Westfalen
Staff
Spannung
Magn
Claus
##ungskrÃ¤
##lagerung
Bucht
##alitÃ¤ten
Fremden
Fernsehserie
lieferte
##ierbar
bedeckt
00
##bedro
GemÃ¤ÃŸ
Verleihung
##flikt
Romane
erlangt
abgebaut
gelernt
Prinzessin
##Car
Demonstranten
1869
Hamilton
sank
Ehepaar
1861
Instrumente
##ungsverfÃ¼gung
abseh
##EA
bar
dun
##gehung
Gesetzgebers
##uverÃ¤n
BÃ¼rgern
hervorra
##agnost
Samuel
Elect
Manuel
fÃ¶rder
##lat
Fred
Vogt
Respekt
entspringt
Cott
Halt
Futter
beteiligen
##etta
jÃ¤hrlichen
##Per
##Komp
prÃ¤z
##rÃ¼ckt
Steve
##spielraum
ausgehend
Artillerie
##/18
TÃ¤
##tirol
##verbands
##alia
unein
Analysten
##dazu
##Produ
##KK
2:0
Weder
##iebt
kurzzeitig
motiv
vorgenannten
Jacques
##/17
Lem
Tenor
89
erstmal
langfrist
##enkte
##offen
Kore
Profis
vorzeitig
erschienenen
Mail
Reit
Erstellung
gerichtete
gestaltete
Sud
Result
massiv
englisch
##iva
##Musik
Faust
gestalten
exter
Hoffmann
1877
Trop
erfor
einzur
##ennens
Katzen
schriftliche
Verbind
absch
erkannte
erwerben
sachlich
FranzÃ¶sisch
AsylG
Medaille
Cir
##andro
Gegenzug
(15
##bÃ¼hne
iran
##anders
Drama
Carlos
berufliche
weiblichen
unvoll
##zung
Knoten
lokale
##Ã¤be
##Verband
VÃ¶gel
Ferrari
fortgesetzt
94
Vorfall
Hanse
Detail
%,
erstatten
Ermittlungs
##phil
Gras
Volumen
belasten
zuzuordnen
##vok
##weilig
hiervon
Clo
Media
Gutsch
##illy
##unte
Prix
##schÃ¼tt
##ehem
stÃ¼tzen
##zÃ¼g
##spor
##ungsanlage
##zehnt
Serbien
silber
1864
##leuten
##ahll
##isemit
landete
Vielfalt
kÃ¼nstlerischen
befÃ¼rchten
geste
##ahne
Wik
nachts
berÃ¼hrt
Erneuer
##aldo
##these
##Gesetz
##MÃ¼n
##ommel
Einreise
Dsch
telefon
##quis
##entschieden
##webe
##tex
Asylan
##isierungs
##atsch
Geistes
bestehend
Pausch
Eignung
Textil
Selbstmord
Aspekt
##acker
JÃ¼d
Kroat
Marco
##Di
Divis
Urkunden
stÃ¤dte
Freising
veranstaltet
Linke
hoffen
â‚¬.
##rath
Zwill
##lu
ruft
Ziegel
##wil
VfB
##Ã¤dagogik
BundeslÃ¤ndern
##vanc
Dob
Busch
Chile
##eichten
MÃ¶nchen
##Arb
##cus
##farbe
##ildes
##lauer
Sattel
etliche
##mitgliedern
##ichern
##wandlung
European
feste
##cz
##oda
Werks
StraÃŸburg
kÃ¼nstlerische
Myt
##Ã¤tsel
Woll
kurzem
##arz
Vorsitz
##regelungen
unterzeichnet
dich
##kinder
initi
##urkunde
##WF
##alters
organ
##nord
enden
##schreiten
##akel
##denkt
MÃ¼hlen
Tausende
##abilitation
##rÃ¤nen
##muster
##ulierten
##icus
##Ã¶pfung
schwierigen
##box
Klag
##stitel
2001,
Const
Beschul
##ivitÃ¤t
Kleine
Chl
##elles
Drag
##hindert
Angelegenheit
##ww
Duell
aussehen
Brutto
Balk
##andina
Landgemeinde
##ehrten
Programme
Ry
##eifen
Russen
Spielfilm
##bett
Linken
Bulgarien
stattfand
EinsÃ¤tzen
Kompetenz
Zahlreiche
##wÃ¼n
Typen
Pennsylvania
2017,
##motoren
Anteils
##//
##stÃ¼r
1849
##strafen
seltener
##inois
##ziert
Volont
##erhebung
##-4
##EUV
##hÃ¤nge
##stheorie
PersÃ¶nlichkeit
ass
Navy
##echs
##lank
1865
befri
normalerweise
Chinas
Vermieter
vorbehalten
##Kultur
kre
Beseitigung
Abrechnung
##uner
Republikaner
BÃ¼ros
Eichen
origin
Inhalts
sammeln
PersÃ¶nlichkeits
##kW
##leibt
Nerv
brut
Grabst
Planeten
##Motor
##bruck
Guard
Website
schnellen
##omon
Bohr
Ã¼bte
benutz
##apur
##denz
##assau
##ftigkeit
hieraus
erneuert
##bilanz
Schlos
SÃ¼ÃŸ
TÃ¶t
##rien
##ziele
##ury
Gol
##liebe
Witten
regionale
Tony
##ensburg
zeichnete
abweichende
##ografen
modern
vollem
habilit
##urb
Schacht
Oxford
Massachusetts
Cob
Schmerz
EP
Moz
##brunn
Harald
(7
##Ã¤chse
erre
erstaun
umgekehrt
Finanzkrise
##Verk
schÃ¤d
##schÃ¼sse
Kf
amerikanischer
##Alt
wohnt
Planungen
##weiser
Mitarbeiterin
entscheidungser
##fries
StÃ¶rung
selbstÃ¤ndige
LÃ¶sungen
##berechtigung
beschrÃ¤nken
Aluminium
Reaktionen
103
##orger
##ible
Free
Modernis
##uge
##kÃ¤mpfe
gestartet
Sad
dynam
##oldaten
werfen
endgÃ¼ltigen
##Kom
##Ã¤ngs
Sydney
Abtei
Victor
##atorische
##rÃ¤sentation
AuÃŸenpolitik
Geltendmachung
##zten
Trib
##Ã¤rztlichen
stÃ¤dtebau
investiert
halt
Ziels
Taschen
##Best
gewisser
einander
Volkswagen
Krankenkassen
WÃ¼n
##Intern
##iform
Sports
##rÃ¤g
##mitten
##Version
Leuten
Chefredakteur
##Kar
hÃ¶l
##sparenz
Rebellen
##nisses
Gep
Geltung
mathemat
##schullehrer
Legende
Vorjahres
Meg
##ckten
aufer
Begehren
religiÃ¶se
Olympiasieger
Wahrscheinlich
Angreifer
##Peter
Patient
verwies
##Ã¤mm
##hÃ¤us
##immern
belgischen
traditionelle
##hum
Olympi
Belastungen
Christop
verlÃ¤sslichen
##ires
Plattform
Testament
##nur
EC
##mien
##higen
Staatsan
##itus
Hess
kinder
##eser
Jun
Privileg
Ã¤gypt
##schwitz
Antragsgegners
Burgen
vorherigen
##Liga
##okol
##steiner
langem
schnelle
Container
Diskrimin
##sieg
##emens
##leihe
schutz
versen
##ains
##vinz
##nÃ¼pfen
Geschwister
Motive
Nachbarschaft
##AR
Bauf
perfekt
hervorge
ErgÃ¤nzung
Nachkommen
InsO
fehlte
Luftfahrt
Abstammung
Legislatur
##glo
Schult
elektrische
##dige
##trÃ¤ger
bescheiden
##stÃ¤dt
Transfer
##kohle
97
Hot
##mos
Mahl
umfassend
##Wahl
##lÃ¼sse
Konzentrations
##dom
Cover
Ã¼berfl
Bundesarbeits
##)-
Coach
Luftwaffe
##App
WÃ¼rde
##produkt
Fachwerk
Manchmal
verstÃ¶ÃŸt
kreis
Wid
Zoo
siebten
zurÃ¼ckkehren
##hÃ¶fen
##://
##Ã¶ck
grob
Awards
Oblast
Hauptort
aufrecht
##],
##literatur
##Frank
KurfÃ¼rst
Kindergarten
##sparen
Ã¤uÃŸern
ErnÃ¤hrung
NZ
Lat
##Richt
##wachs
Vergn
ergangen
gebraucht
GeneralsekretÃ¤r
##Seite
Anwesenheit
##sturm
Ãœbertrag
##achel
Schumacher
Volksrepublik
##Landes
Aufforderung
zut
##schaus
Castle
aufwend
##rup
ev
Reeder
##stationen
fÃ¼nfte
geschm
##berichten
Ketten
##schlei
Ausgra
gesammelt
##now
3)
DS
##Char
##rtung
gestrichen
##dell
##ollt
bit
##hon
##Boot
ArbGG
erlaub
##irektion
Holland
##hÃ¶hen
##hammer
begehrte
unserem
Demokraten
##jub
Wandel
Malt
demselben
Pers
##ameter
jenem
##merkt
Infolge
abgeben
virt
##emeister
Hilde
ungarischen
##ismen
##varian
MÃ¶rder
anbieten
Verfolgungs
tÃ¶ten
##ibl
##nov
besiedelt
beurteilt
Obergeschoss
Counc
Central
##fehlshaber
kontrolliert
##Ã¼ndeten
reinen
beliebte
##Rock
##format
Wille
##kraftwerk
Schichten
Erkrankungen
##mente
##lime
Fres
Mathemat
Sauerstoff
schwedische
##spunkten
##Ã¼bergang
Besoldungs
##kirch
blut
Mittag
##gnor
##saison
juristische
##index
jetzigen
##ining
##scheibe
erteilen
angezeigt
woraufhin
##Spe
##pton
##brach
##Unternehmen
erschlossen
##lief
Stet
Dax
Denkm
Kommune
##wohnungen
##bildern
verfolgte
##skar
##tÃ¤tig
##reuung
mÃ¶chten
##olph
Akadem
Feucht
Spekul
##achtete
Prospekt
kulturelle
##vÃ¶gel
##omputer
dahinter
##/03
Wend
##zwecken
Reihenfolge
Squ
Kunde
##iy
##Album
##dehnung
Gn
##Grund
Kent
kostenlos
Lebensunterhalt
Earl
##breite
GewÃ¤hr
Zweiter
Brutt
Nerven
Zeichnungen
Demokratischen
Sun
Â§16
gelÃ¶st
UnabhÃ¤ngig
VorschlÃ¤ge
Eigenkapital
Kanzlei
Miner
##stanzen
##reihen
aufgefÃ¼hrten
##www
Videos
kÃ¼rzer
geradezu
verlieh
Landtags
Eintragung
RÃ¤umen
##fell
Grafik
##endel
##steher
studieren
##icz
dreiÃŸig
GrundsÃ¤tzlich
##ographische
unauf
ausgeglichen
##BW
Flo
Hirn
Ã„rger
Endspiel
absolviert
##)",
##hens
##ikanten
Heirat
Erwerbst
untereinander
##utsch
Cham
Sandstein
Gift
Leiche
sofortigen
regelmÃ¤ÃŸige
umliegenden
gebrochen
unterhalten
##BI
animieren
Erscheinungs
##haar
##miral
Diff
##iegelt
##Ha
Glaub
3:
##laude
trop
langfristig
##perten
##skrise
annÃ¤hern
begleitete
erweiterte
verspricht
##schÃ¤tzung
##historiker
##BO
##hou
StrÃ¶m
##Staaten
##elemente
Douglas
zÃ¤hlten
digitalen
SchlÃ¤
flach
##rio
Brad
Antworten
angekommen
##Da
Palast
festgelegten
##verbind
qualifiziert
Pac
##wachstum
##serlaubnis
eingereicht
##ence
Ras
verwaltet
dahinstehen
musikalische
##/99
##mÃ¤rkten
Eingangs
Tipp
Lissabon
erlangen
Sicherungs
##cal
##kontroll
inwieweit
Prototyp
Rechtsfrage
ausfÃ¼hrlich
ill
##ppich
##zuge
Leu
##woche
1863
##gerichtliche
Reis
##elevant
Flusses
Intelligen
Krankheiten
16,
Agen
Befest
Benutzung
dritter
Geheimnis
zugestellt
##lÃ¶se
Dame
##ements
Urauf
Bewerb
##projekte
RÃ¼ckgang
Vene
Einladung
##geschichten
##WE
LP
Listen
##sterben
dieselbe
##zahlte
##kong
##hÃ¤fen
##fahrzeugen
105
##ioden
Kriegsfall
Gor
Torwart
##messe
Fraktions
Interpretation
##kus
##sverkehr
gerÃ¤t
##Ã¼bernahme
##disziplin
kommende
Russlands
1.000
Leichen
##amenten
Bewegungs
##/7
##adet
##brief
##gesprÃ¤ch
Feststellungs
##gek
Auftreten
UniversitÃ¤ts
Ric
Amerikan
schwerwie
15,
GKG
##endem
AuftrÃ¤ge
anlaufen
##Ã¤rer
ungen
unzum
deutet
##ausÃ¼bung
rÃ¶mische
##ausstattung
Ralf
##wechseln
Eberhard
##kÃ¶pf
Sklaven
polizei
##my
##gland
50.000
AEUV
##mÃ¤ÃŸiger
Maz
hofft
Julian
kÃ¼mmern
Regierungen
Publikationen
Jim
sign
geheim
krimin
Angestellte
##Zu
##/00
liebe
Freder
grÃ¶ÃŸter
angestellt
##worth
Kast
##BR
regeln
vornehmlich
Herausforderung
Buck
Nobel
Rechtsp
##spark
Pad
unabhÃ¤ngige
##ietz
##gerichtsordnung
Nordwest
elektronischen
verschaffen
##ipe
##obahn
##eigenschaft
Vermutlich
objektiven
Unterscheidung
Vw
Buk
StÃ¤dt
These
feiert
gebÃ¼rt
##personal
Episoden
Vernehmung
reduzieren
Meistertitel
eingehen
##ibir
kalk
##ettern
##Mitglied
unterlassen
Verhandlungs
##schub
##vollzugs
monatlichen
##eira
kop
Sarah
##anzeige
Mohamm
Christi
Bereitschaft
##suchen
unglaub
Tafel
Spielzeiten
langjÃ¤hrigen
DNA
behielt
##steigerung
Vollstreckungs
##wÃ¤ssern
Arbeitnehmern
PrÃ¤sid
aufw
Regime
DreiÃŸigjÃ¤hrigen
Sende
Ni
XX
bleibe
Experiment
##ped
Lungen
##wegungen
##cio
auss
##alifornia
annehmen
Up
Linz
live
Cross
Bakter
Impuls
gefÃ¤rbt
##ices
##antasie
Klausel
##gelder
##oppelte
KÃ¤mpfe
Ansehen
niedrig
BÃ¼rgerkrieg
##kept
Brauerei
##scheidungs
##afeln
prozess
treiben
Bestellung
##ablauf
##underten
grÃ¼nden
StÃ¶rungen
warnt
warnte
Biat
##riebenen
##klassigen
prÃ¤sentierte
##stÃ¤dte
##grÃ¼ndungs
Gutachtens
konzentriert
herkÃ¶mm
stammende
##BT
KÃ¤r
1806
Breit
Volle
angesch
Italiener
famili
Schmerzen
##gebrauch
Business
Jag
Haust
Rhythm
argentin
informieren
Flieger
Freistaat
##rÃ¤u
##ienne
Geor
Event
denkbar
begleiten
##/3
##vorgang
messen
BGHZ
##status
Konstanz
EinzelmaÃŸnahmen
##uters
##istern
englischer
Grundgesetz
fremden
stiegen
komplette
##hoven
SaarbrÃ¼cken
##ize
Nam
##Ã¤ngst
Zuschlag
gerettet
gebotenen
vorgelegen
%)
##fleisch
sÃ¤chsischen
darauffolgenden
Pie
rie
endgÃ¼ltige
Flagge
Adresse
glie
moderner
Kunststoff
eventuell
Giovanni
Reichweite
bundesweit
Â§35
Bast
BischÃ¶
Stephen
##iern
##reuer
##faktor
halbes
##borg
##stÃ¶rung
Diagnose
SchÃ¶nheit
##Mark
##,-
respekt
##schichten
##Pal
Ti
##osop
##kritik
##filmung
##steurop
abzustellen
existenzbedro
Rechtsschutzes
Marin
VerstÃ¤r
##heimischen
verweisen
##owitz
arbeiteten
installiert
##Wilhelm
SchieÃŸ
AsylVfG
##kommand
##sichtig
##wÃ¼rde
##anzlei
##stÃ¼cken
##tenden
##kons
Humb
##Men
Tote
##nÃ¼pfung
##klichung
willkÃ¼r
bÃ¼rgerlichen
##BV
cir
##inseln
Seminar
##bry
DÃ¼r
##Gebiet
vertret
mÃ¤nnliche
##bieten
Revol
Muslime
Seither
##lust
##Ã¼nder
##lÃ¤uter
##ungsort
Funktions
musikalischen
##Ur
Model
##Netz
Ãœbergabe
NÃ¼rnberger
gegeneinander
TÃ¶l
##verhandlung
1856
Iron
Rac
RÃ¼ge
##ocaust
##probe
##ower
Cous
eingesetzten
##uma
##Ã¤ub
allmÃ¤hlich
nachweisen
##video
ErÃ¶ffnungs
##kurse
##kollegen
ausgegeben
Konzentration
##Do
##riffe
lust
##wÃ¤ltigen
Jahrhunderte
(1.
Substanz
beherbergt
umfangreich
hinzuweisen
Image
##andinav
begrÃ¼ndeten
##ares
##bezogenen
absolute
##zes
Klubs
Abbruch
GroÃŸvater
##brachte
ernsthaft
Besteuerung
Math
##wandel
BestÃ¤tigung
Tatbestands
Commer
Pader
Rasen
Slowakei
sexuellen
GefÃ¤hrdung
Beer
fristgerecht
##Linie
##mensch
rechteck
Bearbeitung
Veranlassung
##_2
BuÃŸ
##09
##ship
##spielerin
Baureihe
Neck
Faktor
##aÃŸnahmen
schottischen
gleichermaÃŸen
##Wei
##geboten
Kultus
Slowen
Schwaben
##phia
##meyer
##gezogen
bemerk
morgens
Thailand
Ausweisung
##stage
vergleichbare
##Bild
##Ã¼ster
Musical
angefÃ¼hrt
anspruchs
Vil
##FuÃŸball
GemÃ¼se
stirbt
leichten
##fektur
Siege
##zeitige
Piraten
##ulin
Neues
lÃ¤gen
Designer
Lamp
typisch
digitale
Sark
##scheiben
Plastik
Raub
hierauf
Sparkasse
gemeinnÃ¼tz
..
##dep
Stall
##etzungs
Spring
behaupteten
Snow
##isseur
##zeigen
Wilhelms
bedeutete
beantworten
unterird
##cast
##Ã¤chern
##wÃ¤gungs
heftig
##rechnungen
Diskussionen
Gerechtigkeit
WeiÃŸbuch
Beobachter
bekleidete
BBC
Kleinen
Triumph
Sanktionen
verkauften
##DV
##olis
Schenk
KomÃ¶die
##/19
##uri
Had
##zuges
verbreitete
Halbzeit
Warn
Warte
vermuten
##ungszeitraum
eigenstÃ¤ndig
Id
Pest
schauen
SÃ¼damerika
befasste
Junior
Pharma
reisen
Versionen
erfolgreichsten
##Leben
##antrieb
Bernard
gelebt
zugeschrieben
##Regiment
Zentrale
##schaf
Munition
besonderes
##MR
Ã¤r
Unsere
Filmfest
Minn
eigens
kommunalen
##Uhr
##stellbar
Geschmack
##agon
behÃ¶r
erhaltene
##icip
##strich
Taylor
##hema
Begleit
##attle
##noten
Dreharbeiten
einsetzen
verhÃ¤ltnis
##chor
kar
Huber
##schreiber
Verwandten
Terroristen
stÃ¼nden
Bow
Farm
Breiten
KÃ¶rperschaft
##PC
##kins
Konflikte
gegliedert
##dliche
antrat
##atch
Bit
1803
verfehl
Weltrang
##Berg
##orgfÃ¤lt
Cho
stÃ¼tzt
##DI
##etisch
Netto
singen
Saarland
Ull
##ahnung
##Ã¤cheln
##klassen
##tenberg
bedur
##Bundesstaat
festgestellten
##Fried
Ohio
Auswertung
##befrei
##mittee
wohnte
##ifizieren
##schÃ¤dlicher
##Saison
Briefe
##inens
##irurg
Katal
drohte
kÃ¶niglichen
Anat
Diplomat
##mÃ¤
##wurfs
befunden
[unused_punctuation9]
con
##imit
Maus
Artik
Toronto
TSV
Schmal
##pflichtig
##iatrie
Erheb
Gaz
##erkran
verwandt
Bundestrainer
FÃ¼n
##ildete
Point
Kathedrale
Erinnerungen
hoff
Gefecht
tÃ¤tigen
unmittelbare
Tuch
##steins
ungesch
Eroberung
##odes
Wilson
zahlt
unterhÃ¤lt
angesetzt
Male
Tabak
wohnen
Kri
##hÃ¶hungen
StaatssekretÃ¤r
##News
wohin
Decken
##Ã¤pst
traur
StabilitÃ¤t
umstrittenen
Vorratshaltung
##rÃ¶n
quadrat
Om
Ara
##wellen
Theres
echten
##lehn
1859
##genehm
##kreises
vermieden
##presse
schicken
##ume
scheinbar
##Modell
##ungslos
Dienstleistungs
##/12,
Proben
##Hand
Valley
empfohlen
relevanten
niederlÃ¤ndische
##Max
##bri
Standards
eingenommen
Entscheidend
IG
Magnet
Landratsamt
##itischen
##getan
dargestellten
Ala
##gesucht
HierfÃ¼r
bezi
##eto
Portal
Weimarer
##";
##eihen
##rucken
##schefs
Games
FrÃ¼chte
begraben
eigenstÃ¤ndigen
Sob
##Urteile
Befristung
##iehlt
Gutschker
entschlossen
6:
obersten
ungeachtet
##GroÃŸ
Kiew
gelesen
Herausgabe
Vizemeister
stationiert
Ay
##blau
MTV
##programme
Offenbach
einges
Partnerschaft
450
Cornel
Elfmeter
denselben
eintreten
prÃ¤sentieren
Nase
KampfverbÃ¤nde
##ovi
##misch
line
Beamt
##bruchs
##tages
Dienstherrn
Organisations
1,2
trennen
Lieferung
demokratischen
##lohen
sÃ¼dliche
akzeptiert
Prozesse
verantwor
##Me
##Ã¤lz
einstellen
##Eine
But
Boris
##zuschlag
##rend
massiven
Eintrag
ausgeht
Achtelfinale
Arbeitgeberin
##steuern
Adress
Auszeichnungen
Verkehrslenkung
##vogel
Schlosses
##gnost
inhaft
legten
HÃ¤rtung
abschloss
dick
##ross
##ways
##leidet
Maj
Umlauf
sobald
Bewertungs
Haare
quasi
Kroatien
Ã¤rztlichen
Bj
##/10,
Punk
##eltern
##musiker
Schwere
individuell
##Dar
fÃ¶rm
Optim
##andelten
Kampagne
Herkunfts
konzentrieren
##lug
##gens
##eback
##kundig
VerjÃ¤hrung
##aco
Tai
##Christ
##aspiel
##geheim
Meist
hinreichende
unabhÃ¤ngigen
Hahn
Toil
Rendite
##methode
##ave
18,
abgehalten
geladen
Unge
Generalma
geschÃ¼tzten
Elbe
Studios
Empfehlung
Clubs
Fokus
VorgÃ¤nge
##bezogene
Mittele
geltende
Wertung
##katholischen
##summe
Zufall
Knapp
beruft
Fahrbahn
Holocaust
Zucht
Bamberg
Gitarre
andauern
Erfordernis
Lis
##schritt
##ehrte
Turin
normal
Anliegen
wachsenden
##idt
##ulf
Piet
Zert
Sachbuch
##Buch
##iologie
##Ausweich
##adelphia
##anschluss
Katastrophe
hohes
4000
Bann
baut
Berger
Institution
angefÃ¼hrten
##itÃ¤ren
Kurse
Keramik
##brÃ¼che
folglich
untersuchen
demgegenÃ¼ber
##cons
Mix
##sbezirk
##widrigen
dortige
angemessene
dementsprechend
Tz
##Arab
##ophon
##ziell
Wenige
vieles
##Wert
Buen
##eignung
##reitung
erfÃ¼ll
ErÃ¶rtert
Seil
##Prozess
##iatischen
verneint
Ursprungs
verglichen
gegenwÃ¤rtig
Dienstsitzes
##sko
##/02
Acc
Bog
kehrt
spezialisiert
##eitig
##schauspiel
##Erstversorgung
est
##siedlung
Jahrzehnt
KriminalitÃ¤t
##8-
##hÃ¤lfte
erzeugen
tÃ¤glichen
Dirk
Gleichwohl
##frauen
##stufung
Marsch
##End
harten
##kandidat
maÃŸgebliche
organisierten
Lyn
Entert
erbaute
irgendwie
evangelisch
unangemessen
geschÃ¼tzteren
Werft
##bischen
Perform
Berufungsbe
GA
Pkw
##ktive
##statter
##rankheit
##lassungen
Betreuungs
Salv
verfolgten
##zusp
tau
Emer
Lady
Gruben
verkÃ¼ndete
Alarmsystems
li
##izid
Trik
sorgfÃ¤lt
##grammen
Ãœbersetz
untersagt
app
rÃ¼ckte
##Ausweichsitz
AffÃ¤re
##schlÃ¼ssel
zufÃ¤llig
effiz
##Turnier
Jersey
Weiteres
russischer
##drei
##reen
ausschlieÃŸen
##zweig
Ausfall
bekamen
Ã¶rtliche
Ye
Referenz
Kleinstadt
Ziv
etwaige
betriebs
Siegfried
angewendet
Tam
##masse
bittet
erhobene
stattfindet
CN
##lsen
HÃ¼r
jahrelang
##Eu
##ologien
Kolumb
Ã„uÃŸerung
BekÃ¤mpfung
drast
##wÃ¼rdigung
Springer
SED
##leite
20-
##dring
Mayer
Illinois
Bewusstsein
##politiker
##pert
Sekund
Kulturen
##wÃ¤ltin
##umme
verzichtete
Parks
Atelier
DiÃ¶zese
normale
beklagten
Moor
Bezugs
israelischen
##azitÃ¤t
##TC
##jur
teilgenommen
##rachter
##wÃ¼rdigen
Geheimdienst
##via
##bele
##dimension
Nationalspieler
##bestÃ¤nde
##anch
Zyp
armen
Rettung
expliz
frisch
verliebt
Aufschwung
##uchtet
elektrischen
##olischen
ErlÃ¤uter
Nichtzul
Lebensraum
schoss
Empfang
erfunden
Zumindest
##resse
Claudia
digital
Atlantik
Benachteil
##finanzierung
beschriebenen
Weit
norwegischen
Versetzung
##oman
Tageszeitung
##ione
##lÃ¤gerin
##skammer
Projekten
Diam
ergebenden
##aison
##geschehen
Schiffen
Volksschule
##genz
##verm
##hause
block
Aufstand
Beitritt
##zahn
##wertungen
Ents
flex
freuen
##enke
24-
att
ES
##invest
##Theater
##Verfahren
##zÃ¤
Zugangs
nÃ¶rdliche
Bewegungen
viert
zeige
Folgende
Beobachtung
LÃ¤nderspiel
Kass
Werder
##Tor
##ocht
Verw
Heu
rÃ¼gt
ausÃ¼ben
vergeblich
Fulda
##retungs
Ressourcen
Rup
Semester
SÃ¼dkorea
annÃ¤hernd
verweigert
##/4
Esp
Wim
extra
angewandt
Telekommun
unbekannten
Marg
MÃ¤rkte
##ungsmittel
angehÃ¶rte
TrÃ¤nen
Erdogan
##vergÃ¼tung
Galax
Standorte
Bebauungsplans
##house
##brunnen
##handelt
Charlie
Dy
##ruhen
Moos
klaren
Wegfall
##Typ
Innere
Anwohner
Gegeben
##Ã¼rtel
##esischen
##gladbach
beseitigt
##owo
##zonen
Eliz
Frances
##sprÃ¼ch
Freiherr
##darsteller
versteckt
##karriere
Teich
fremd
Ehegatten
##ktoren
Regelfall
Welle
##wirtschaftlichen
17,
Fox
##gesetze
Neapel
##vertrÃ¤gen
##ahnsinn
Christine
Oskar
Schalt
TU
##arth
##ekut
##wirksamkeit
vertrags
Minderheit
Einzelhandels
##hÃ¶re
Bug
Arsen
Chrom
Stoffe
Vulkan
California
Erforschung
Fracht
##Gi
##rob
Taxi
##ikationen
Christopher
##zoll
KÃ¶hler
Bundeslig
geeigneten
befreien
BÃ¤r
with
##fielen
##istisches
Kraftwerk
##arnt
##hÃ¶riger
Ki
Kru
##proben
FlÃ¼ss
Aussehen
Passagier
1854
erlauben
abgelaufen
selbstÃ¤ndigen
##Halb
Sven
derjenigen
Freiheitsstrafe
##work
Gebirgs
##hoe
Sees
Kevin
Instand
(10
##inhalt
1999,
##setzten
Council
krÃ¤ftig
Leidenschaft
ZÃ¶
Court
##methoden
##lack
##conom
Skandal
Situationen
##Du
stecken
##Regierung
Peg
##inische
Ursula
Ingenie
verbesserte
vereinbarte
##samkeit
Ã–ffnung
hy
Conc
Solar
Rentner
durchgesetzt
##ulab
Gert
versprochen
##wicht
Ihrer
##ristall
BezÃ¼ge
Leich
feind
Bezeichnungen
##)".
Blog
##fallenen
##/09,
##konto
Unterst
##zeitlichen
GedÃ¤chtnis
betreffende
##rÃ¼ge
Stau
##usten
galten
geprÃ¤gten
##Des
##Ã¤mter
lebende
anerkannte
Transparenz
beauftragte
Carlo
##Ã¶lk
##Ã¶ser
Note
Platte
##eingang
Haw
##firmen
##laufende
ankommt
fliehen
Â§34
Blitz
fÃ¼gte
##denburger
KurfÃ¼rsten
finanzieren
##glied
Harvard
Life
Thal
OberflÃ¤chen
essen
Schock
##sbehÃ¶rde
bemerkt
verpflichtete
Basil
##fisch
##ape
Pant
Dunkel
Folter
zugelassenen
##Ã¤len
1852
ruhig
Bedien
vertraut
Blue
##Museum
##elekt
dreht
##greifenden
bewiesen
Selbstver
##WeiÃŸ
sto
Roch
dran
##ungsansprÃ¼che
ordentlichen
##vit
##ibilitÃ¤t
##Brandenburg
Handwerker
##unternehmens
mÃ¶gen
Skulpturen
Winden
Finanzierungs
##erg
mÃ¼
UStG
Clemens
genÃ¼gen
Veranlag
##erecht
##Ak
Ud
##dorff
erlo
##laster
##BÃ¼rger
Reifen
Texten
##bÃ¼chern
##iler
##jagd
##nachlÃ¤ss
Grundbuch
Antike
Rechnungen
##verletzungen
Gene
##Go
Wolken
Grundriss
ersetzte
##.8
Kna
##Mont
Philadelphia
Good
irak
fÃ¤llig
##hÃ¤use
##kÃ¤mpfen
GrÃ¤ber
Meilen
verlangte
ZB
fragte
geschlossene
##tum
##Port
Cin
##osh
Army
##fassen
##hauser
##lautern
Gleiches
verworfen
##Mitarbeiter
##gemeinschaften
##behr
angebaut
##Ol
Barack
Bekenntnis
gewÃ¶hnlich
verblieb
Erlangen
Ã¶fter
##Ã¶rtlich
Weser
circa
##ungsbef
30.000
Publiz
Indones
##telang
Challen
Professur
deutlichen
Tick
##austausch
Fundament
##urteile
##zusagen
19,
##schwe
Hels
tiefen
Highway
Sektion
drauÃŸen
Schaffen
20,
##schern
##stetten
sauber
identifiziert
Za
Water
Schill
##gÃ¤rten
vertraglichen
##abs
##abbau
##antische
reagierte
reiche
sammelte
115
Rass
##stehend
brÃ¼
ras
Grundstein
betriebliche
##reter
##speicher
Cambridge
VorlÃ¤ufer
Kamp
##bourne
missb
Dividen
uneingesch
Corporation
##awa
gesorgt
Anlehnung
##mÃ¼n
##relevan
ansÃ¤ssigen
nachhaltig
##zessen
##maÃŸstab
betrÃ¤cht
Costa
jugend
##Ã¼bertragung
##/11,
##hÃ¼ll
wartet
Offenbar
##satzes
bricht
Johanna
4,5
Dun
##erkennen
##Ass
##fechtbar
stÃ¼rzte
##Ã¼berw
Gute
##versuche
bewirkt
einzeln
trainiert
wenden
##istenten
AuswÃ¤rtigen
gegenseitig
Durchsetzung
##dl
##beschlusses
##eme
##chsen
##wartet
##rankenhaus
##oler
Streitjahr
##onische
Migration
ThÃ¼ringer
Konsol
Kosovo
##6-
##itiv
Ãœberreste
Immun
Abwesen
Restaurants
vorangegangenen
##199
konkurr
vermehrt
Morgan
MÃ¼tter
mancher
begehrten
Begrenzung
##beschÃ¤ftigung
stammenden
().
##zenen
##Ã¤nglichen
besiegte
Belagerung
derartigen
##emie
Heid
##bauung
beheim
ausgeprÃ¤
Gewerbesteuer
Sitzungs
Vergewalt
##ohne
##final
##sprÃ¤sidenten
##hÃ¶l
##ims
Coup
Jugoslawien
FranzÃ¶sischen
ausgeschieden
##Auch
Disco
Ã¼bliche
schickte
##imer
Guten
bewohnt
staatlich
Argumentation
##LA
Neure
ignor
Athlet
kÃ¤mpft
##xit
Luis
befra
##ungsgrund
lehnt
##angehÃ¶rigen
##hmer
Fas
##prech
Liver
Muskel
Proteste
1813
##steigt
##Ã¤umnis
##skandid
##mittelalter
gebildeten
Bekanntheit
plaus
##krieges
benachteil
htt
irre
Popular
sicheren
ErzÃ¤hlungen
zugesprochen
##ui
##gio
##zei
StR
Philh
Frequenz
##Mannschaft
verarbeitet
grenz
literarischen
Hartz
##stÃ¶rungen
BÃ¤nde
Brigade
##alifikation
GerÃ¤u
##Bahnhof
##Bewegung
bekrÃ¤
Geltungsbereich
Nationalen
gewÃ¤hlte
verteidigte
fund
einig
Tobias
erwies
faszin
gesondert
Lt
##umpen
Laien
##Ã¤ndischen
##DM
GrÃ¶ÃŸ
Sieb
Imper
##sek
Korruption
##begl
zeu
Sabine
Interviews
(8
##raham
##scheide
Abgesehen
Produkten
##ough
##necht
verkÃ¼ndet
islamischen
##kle
Gord
Rast
Kolonie
konfront
1816
kannte
##revolution
##verzeichnis
verbringen
PreuÃŸischen
##belehrung
Humboldt
Ãœbersicht
Gegenleistung
##Flug
##Manager
beantwortet
MitbegrÃ¼nder
##ights
Erbl
Stick
##vortrag
##zugeben
##beziehen
kÃ¼mmert
##sverfahrens
Einwendungen
rechtskrÃ¤ftig
##zeilen
##udent
entwarf
beitragen
Pressekonferenz
Bin
dachte
dunklen
Kennzeichen
Kem
Gent
##ordens
Sammlungen
##staatsanwalt
benutzen
Verfasser
Cer
##felde
berÃ¼hmt
Eb
##korde
Lyon
spÃ¼r
##Jugend
##stiftung
##ualisiert
AuffÃ¼hrung
##Li
LG
Miete
##rale
##raÃŸe
##wesend
Â§80
##rennten
##stÃ¤dten
bulgar
Kreisen
Landess
enttÃ¤uscht
Lett
Studierenden
##apo
1857
Hind
GefÃ¼hle
hinteren
1855
Spruch
fusion
ausgerÃ¼stet
restauriert
Erkenntnissen
elektronische
liest
Greifs
##sichtlichen
verhÃ¤ltnismÃ¤ÃŸig
##hall
WÃ¤nde
harte
Sophie
Unterbrechung
Semin
rhein
##springen
Kartoff
abends
unricht
Verbandes
gesamt
Geschlechts
Allgemeinheit
##iem
##tan
SK
Pur
pal
Barb
Dall
SchÃ¤uble
Argumente
beabsichtigte
##antast
##ottenburg
Vernicht
Mehrheits
kol
Ingol
stÃ¤rksten
##uv
Demonstr
genieÃŸen
befindliche
Rumpf
kunst
schaut
entstamm
Anpassungs
Bekanntgabe
##kab
##theater
##Richtung
Janeiro
##Bi
##werfer
inneh
##auswahl
vorigen
produzieren
##inte
hor
##unten
SchÃ¶
Country
##zufrieden
Fortschritt
Ulm
Wut
##iftet
##decker
##gewerk
Sog
taucht
derjenige
##lÃ¼cke
mech
Begriffs
##enner
Sparkassen
Sozialgericht
##lied
verÃ¶ffentlichen
##iÃŸ
Beute
FÃ¶der
Meier
NG
Rut
##objekt
perman
verbracht
##szene
bitter
UmsÃ¤tze
amtlichen
##anka
##ultan
begab
habilitierte
Verwirklichung
Forum
MÃ¼nchener
Soziologie
##lis
##osis
Isol
Committee
Fahrzeugs
GesprÃ¤chen
1858
##rungen
Abriss
Tiefen
##rell
Spannungen
Reduzierung
Attra
##gymnasium
Unterrichts
##Az
Getreide
versichert
zeitgleich
##rium
Wy
Nordkorea
Kanzel
SchÃ¤del
##Dienst
ew
##sis
Ark
##filmen
liebt
##tausende
einstigen
##ansas
Muss
##gingen
##lichte
jemals
Dialekt
vollzogen
dazuge
Kaiserreich
ER
Hop
grÃ¶ÃŸerer
seinerseits
Vereinen
beachtet
steigern
##wN
##still
##zulage
Antarkt
erÃ¶ffnen
zumutbar
##ahlen
##bachs
Erzeug
klÃ¤ger
##afrikanischen
1.2
##regen
Festivals
Satelliten
##sexamen
1846
UEFA
Volkes
##ratis
Zone
zukommen
substantiiert
##izza
##irurgie
unternehmer
##lÃ¼
##lob
Lehn
##bedÃ¼rf
Einleitung
sachlichen
investieren
##ologin
spÃ¼ren
##schÃ¼tzer
Ã¼bernahmen
##SGB
AuÃŸens
drehen
nennens
Komponenten
DA
sum
##eigenen
anwalt
Bibliothe
##endo
##Ã¤mmen
##thos
##ioxid
##verg
Way
##wertes
Paare
##arischer
hinterher
Unterschrift
Roma
##utel
transportiert
##vik
##resp
Schwerin
liebsten
##berufen
Wirkungen
deutsches
RL
##rall
kla
viermal
art
les
Rezension
FÃ¼rstenfeld
Medikamente
Duo
mwN
##stunde
KÃ¼chen
Langhaus
##Ant
##oppt
exakt
verband
Schweine
Liverpool
verlegte
hierdurch
sparen
##gebÃ¤udes
##Gel
Romans
AuswÃ¤rt
aufgeben
Erfindung
Bod
##widrige
##produktionen
##/13,
haus
flÃ¤chen
##))
##groÃŸ
Saudi
Florenz
##vereine
kooper
moment
Aussetzung
hÃ¶chstrichter
##dalen
##wetter
Bewerbung
hinnehmen
1818
##aufgabe
Ã¼berfÃ¼hrt
zuzurechnen
LebensgefÃ¤hr
##.14
Kot
Viktor
SÃ¼dtirol
Fed
##bedingten
Einsicht
Teilzeit
##grÃ¶ÃŸen
##galerie
Einstieg
Straftat
zueinander
Vertragspartner
##bles
denke
Zufluss
Italiens
kirchlichen
Indianer
Oslo
Poll
flog
##armonie
Balkon
Siedler
EuropÃ¤er
TorhÃ¼ter
Verlegung
schweizer
angefÃ¼hrte
Verwaltungssitz
##raph
lÃ¶st
umgest
KÃ¶nigsberg
##imo
KR
##itals
geÃ¤nderten
verhandelt
Generalmajor
Ãœbereinstimmung
Cit
markiert
Andrew
##lef
##kleidung
Grundwasser
##klagt
Pack
Camer
stetig
zeitliche
##omb
1847
Holding
Lieblings
geschieden
Einzelfalls
unterzeichnete
##ouri
##ophil
unsicher
KÃ¶nigreichs
##kurrenz
##typ
##ipel
pauschal
##gebnisse
hinterlassen
##Raum
prognost
Winterspielen
##ennetz
gehoben
Herrmann
Jahresende
##ungsvereinbarung
##damer
Haben
diesbezÃ¼
1845
##schuldung
##uh
##ktiven
Trumps
ungleich
##staatlichen
Lade
Miller
##schiffen
MÃ¶glicherweise
Fakten
Bosn
Werden
nÃ¤heren
Margaret
Ohren
Teufel
##GeschÃ¤fts
Orchestra
##lÃ¶ser
Kreuzung
Sciences
Vorbehalt
750
alledem
rekonstru
Standorten
##unds
Â§20
Broad
erneuer
schuldig
Explosion
24,
##ogo
##maus
Phasen
genauen
Unterlassungs
##wich
##idsch
##ivalen
Devis
berichteten
dienstlichen
##provis
erfassen
Ã¤uÃŸere
Oliv
##klÃ¤ren
Bonus
Vorbringens
typischerweise
##Ã¶rn
##auflage
##berichte
verdeut
LÃ¼neburg
goldenen
Eid
1851
##mach
##aska
##wirte
Damm
Vik
Wenig
Senator
privater
orts
##dauern
Grube
stimmen
Gletscher
Gren
Unbe
##skolle
Bistums
faktisch
##lowakischen
Steinmeier
existierte
Armin
##fÃ¶
##Mart
Â§22
##datum
##drÃ¼cke
Mater
Unbek
Moschee
RÃ¼ckstand
Bundesland
##kandidaten
auton
Social
untere
##versorgungs
##reue
BÃ¶hmen
##achteten
Deswegen
entfÃ¤llt
Diebst
Homosex
einzusetzen
Nationalpark
Lev
gesunken
##ield
##senkung
MÃ¼nzen
gehindert
Ig
litt
Auszahlung
##pan
sichere
frÃ¼herer
komponierte
##may
##oxid
BVB
Nett
##seller
Sekunde
verfahrens
KÃ¤mpfen
Kriterium
parlament
vertraglich
##Test
##umer
Teen
hÃ¶herer
MÃ¶nchengladbach
geringeren
Sav
##glicher
KÃ¤mpfer
Sternen
##ally
##lans
##Partei
geholt
unverhÃ¤ltnis
gÃ¤ng
locker
Tournee
##betrieben
Aufzeichnungen
##aterials
Offiziere
genutzten
abgeschlossenen
##NS
##EWG
##kamer
America
Kond
##voller
entspreche
##-10
##sheim
Litt
Willy
##initiative
##DE
Jam
Cour
FamFG
##stimmte
Ã¼berdies
BewÃ¤hrung
##seg
Hauptmann
Stirn
Campus
##mess
LSA
##augen
vollendet
gebrÃ¤uch
PrÃ¤fektur
Stark
Mauern
Kontinent
##RZ
##zubilden
Smartphone
Teilnehmern
Gelb
schÃ¤tz
Katalog
##gelegenen
Raf
##ians
##ifter
Aires
Weinbau
##schin
Leer
Centre
beigetragen
einheitlich
##zutage
##ffizienz
Wichtig
Inszenierung
##Ã¤ngel
gewerblichen
##HA
wahre
monatliche
zwangslÃ¤ufig
Dul
Kaiserslautern
##belt
##Ã¼hen
##Gemeinde
Bruders
sowjetische
##bot
##rypt
exp
Class
lobte
##visions
Scheitern
Chaos
1853
mehrheitlich
Eins
Manu
Mobilfunk
entziehen
angegriffene
##HK
##igr
Putz
Schwellen
Terrorismus
Inc
##stige
Ostsee
##gegenstÃ¤nde
Krieger
entschul
##Kap
##gerÃ¤ten
Hubraum
##sphase
Budget
##yo
##ksh
Libr
Pastor
Hunderte
Vollendung
Pay
Vas
##ural
risk
teurer
Zivilisten
Pitt
Pionier
Ergebnissen
Lah
BÃ¤ren
blauen
Pseudonym
Trio
##sicherung
##verarbeitung
##finger
erwÃ¤hnten
Jungs
##riminal
RÃ¼ckzahlung
DemgegenÃ¼ber
Zwie
Boule
Conrad
Ermittl
##vorbringen
##wochen
##rÃ¶h
##lesen
perfe
##merkmale
maximale
##HF
##alon
177
Einheits
Investor
Kommentare
Systematik
##zil
##Ã¼cher
##antritt
DÃ¶rfern
##schÃ¤digung
langjÃ¤hrige
##CI
##nÃ¤
##yse
Â§18
##deter
##nische
Andro
Wasch
Paderborn
kolle
Innenraum
gestellte
Beteiligungs
BundeslÃ¤nder
##arter
##olith
##hell
1,3
Koffer
verdÃ¤cht
Personenk
##fassade
gewÃ¶hnlichen
##HO
##wird
240
Psychot
Einblick
sportlichen
UrauffÃ¼hrung
zurÃ¼ckgezogen
##rater
Empfangs
Kreisstadt
##utin
##irus
##udium
Iwan
bitte
Niemand
umgehen
##4).
kontinuierlich
Busse
Marcus
Stanley
##Ã¤nzen
Kuba
Tabl
urteil
Preisen
koordin
##Ã¶te
unweit
##probleme
220
Lkw
##Betrieb
Anlauf
geschw
riesigen
Katholiken
##Aff
##ulus
##Ã¤dagogischen
##cle
fix
geehrt
abgesetzt
HSV
zulÃ¤ssigen
hab
Ã¼berle
schmerz
##ehe
AP
obere
Etappe
Ministeriums
Nas
##venten
##klausel
##stimmungs
fehlender
kW
Hav
Old
Parag
Sterne
Streich
Chemnitz
##WS
##eisterung
Augenblick
##gegenstÃ¤ndliche
##oms
GT
##amas
Cons
Heimatland
##Ã¶ster
##gerechte
##iefs
155
Pist
Decke
grÃ¼ne
journal
Monument
##schaftliche
KÃ¼nstlerin
##ustiz
Teilung
praktische
##ites
##wÃ¤lder
Dienstes
##grem
##begehren
##leichter
Trau
##etrist
##gnosen
BundesprÃ¤sident
##RF
##loÃŸ
Ansonsten
erfolgreicher
##reiz
##skop
Seel
BÃ¤umen
Series
Hartmann
gesicher
Diego
##Agentur
republ
##katholische
Menschheit
VerÃ¤uÃŸerung
Fernsehsender
Call
Ehre
##Vertrag
Anstalt
Kristall
TÃ¤tigkeits
rechtsextrem
verwirklicht
##fot
##ainment
##pfleger
##positionen
Erblasser
Moderator
##kehrte
spont
Kessel
Auftrags
zuzÃ¼glich
##ungsanlagen
Operationen
besicht
starker
Unmittel
Vorrunde
Anim
Comeback
##Sprecher
geschÃ¤ft
Hubschrauber
##asis
##damm
solch
Abschl
saniert
##3).
1820
Haushalten
Bekanntmachung
##nahen
plus
##kredit
sprachen
##stÃ¤ndischen
sicherlich
##essa
HÃ¶hlen
##Verein
HÃ¼tte
Philip
Napoleon
nachweis
##aba
##stheater
Singapur
##eball
##wache
##wertige
##Park
Kopie
Konkret
(Â§Â§
Key
kÃ¤me
Gabrie
Drehbuchautor
Karos
Buenos
Logistik
bewahren
21,
Kay
Sympath
empfing
Aufsteiger
Versicherte
unterschrieben
Ã„rzt
AnfÃ¼hrer
##ESC
##schatz
##undeten
##zulande
Zwecken
##Kat
vorab
anstatt
durchfÃ¼hren
interessant
##DG
##eda
Spl
Dich
##hessen
Nadel
wofÃ¼r
Wahrung
##iri
##ithm
##fal
WÃ¤hrung
Durchgang
BIm
Lenk
##antrags
Gelder
##ikers
##prÃ¤gt
Gross
HÃ¤ufig
Option
unions
##phabet
##suchungen
Rohstoff
vorderen
Versprechen
Pflanze
Kommissar
Kredite
umgehend
Niederschlag
##USA
WÃ¤
Arte
Impf
WeiÃŸe
##malerei
##ceae
NPD
##lÃ¤ser
Hend
berief
##Geschichte
geregelten
Philippinen
konservativen
##big
Rajon
##orph
analog
##anspruchs
Veget
erteilten
beseitigen
RA
##itÃ¤n
##hythm
Atta
##sperson
##sprozess
Beweise
europÃ¤ischer
Ãœberraschung
##ieben
##rumpf
gefÃ¤llt
Hongkong
##spaltung
##Ã¶ntgen
##offizier
stimmte
akademischen
##Ã¼chtern
beschlag
Bayerische
AnkÃ¼ndigung
herzustellen
Sort
##ahnt
Anth
Freie
Fellow
bekannteste
##ungsverordnung
##andet
##acional
##osophen
Betten
Einver
Strich
##berufung
chemische
fraglichen
mutmaÃŸlichen
##omatik
##Benz
##ikos
##klam
##pfalz
schmalen
##pres
##hÃ¤nder
Letztlich
Aufsichtsrats
##iago
##geregt
Ozean
##schutzgebiet
Eh
Betrieben
KÃ¼nstlers
deutlicher
entfernten
##oks
Marok
Wahls
##echselt
Motors
beabsichtigt
##.;
##lastet
Wolff
heiraten
Salzburger
Dj
Witz
Ã¼berleben
Generalstab
##hter
Falken
zugeteilt
Gesichtspunkte
##fi
Pend
hÃ¶rte
##gewÃ¶lbe
Balkan
hÃ¤ufigsten
Nummern
##schiebung
Rev
##Reihe
punkt
##betrags
##esh
einstimm
##ipl
Gis
Leber
syrischen
104
##ystems
Format
##stadion
Nordost
gewordenen
Kut
##werts
##runken
Color
weitaus
Ã¤lterer
##ventionen
##We
##hilf
##hÃ¤ngigen
##stren
Initiat
Championship
Fifa
##abgabe
versamm
Scher
Lorenz
Abraham
##lG
##Bra
Hus
Mahn
Truppe
##jÃ¤hriges
Petra
Lehm
##ktivitÃ¤t
##benennung
SpÃ¤testens
Cos
##artett
Wulff
fuhren
##Niederlage
##franken
##zugehÃ¶rigkeit
Zar
anger
##gehalten
Starnberg
Ruine
Burk
schwieriger
Bundesgebiet
##minton
stÃ¶ÃŸt
GÃ¤rten
Ausflug
##.13
##bon
geringere
angeblichen
##funks
##idakt
Gerichtsakte
Mehrwertsteuer
##stel
Born
Sehr
Titels
Zeugnis
##IM
vorgenommene
##eille
##zwang
Cher
Kollege
Geschwind
##sea
vis
##freunde
Berichten
##affel
Schad
AusrÃ¼stung
##Lauf
(20
spitz
##anschlag
##meisters
Tak
1814
Bewohnern
##="
DaÃŸ
fing
Forschungen
Versicherer
ausgeliefert
Abu
##bezirks
Hessischen
Umwandlung
##Pat
##wappen
verwehrt
verlieÃŸen
##OP
##stehe
##pausch
Juristen
BÃ¤cker
stÃ¤rken
akzeptieren
DIN
abweich
Haftungs
begegnen
##2).
kÃ¶rperliche
##HÃ¶
##aine
##lland
##etenzen
einzuf
Fotografie
Weiterbildung
##fÃ¼hrenden
Anrechnung
Kompromiss
publizierte
Schlagzeuger
##wirtschaftslehre
##LS
##Wolf
half
ungÃ¼nst
Elizabeth
Berechnungen
Genehmigungs
stattgegeben
##ussell
##respond
##strukturen
Bescheinigung
##Res
from
##Ã¶gerung
ergaben
verminder
Alliierten
singt
besaÃŸen
Anordnungs
Kaum
Trasse
verÃ¤nderte
bedeutender
widersprÃ¼ch
wiedergegeben
AV
no
##zogt
Dog
##drÃ¼cken
##Ã¤ndes
##uteten
1998,
grundlegend
##schle
Elite
Aufsehen
##FS
##amme
MÃ¼nz
kontrollieren
##zia
Zelt
##Ã¼ttert
Valen
drauf
Neuregelung
(0
Jr
##klinik
bekrÃ¤ft
##impf
##steck
Poten
formal
anzutreffen
##6).
##asso
##Liter
geworfen
Niederlagen
melden
##1).
sta
##eignete
fÃ¼rchten
Erding
Giebel
Abwesenheit
Alan
Kolleg
Beamter
Gremium
OstpreuÃŸen
KSchG
##ankungen
Besuchern
bestreitet
##edy
Mete
vermark
Anwendungen
##Je
##itekt
Weich
##hringen
physikal
##.1999
steigenden
##anzie
##schÃ¤r
Zier
##tempor
##erenzen
Fische
##ungsfrist
forderten
Politischer
Flut
Match
##ierendes
Streitstandes
unregel
Kommunalwahl
tschechischen
##sor
Zypern
Michigan
GÃ¤sten
##inea
kna
Paulo
Ermord
EnglÃ¤nder
benÃ¶tigte
##iesen
##flugzeug
Stammes
NBA
##teilige
sim
Bene
HÃ¶hle
Gewerkschafts
Osteuropa
etabliert
vereinzelt
Found
gewÃ¤hrte
Pazifik
##sbeding
groÃŸzÃ¼
verteilen
nationaler
unterlegen
stillgelegt
bild
##schenko
Sigmar
Erfinder
Konsequenz
erÃ¶ffneten
unternommen
portugiesischen
poten
Flecken
Vorkommen
##ohr
##bÃ¼ros
##zwald
Schwert
empfunden
Gallen
BeschÃ¤ftig
etablierte
dpa
Schub
Grundrechte
Minderheiten
selt
Taliban
diagnost
weltweiten
##Tal
##ple
##abor
1810
##zeiger
Opfern
##liebenen
KA
beha
tiefe
##gewÃ¤chse
Verbund
##angelegen
Inflation
Lastwagen
EinverstÃ¤ndnis
zugute
jegliche
Erholungs
vertretenen
##Zentimeter
aufzubauen
ret
##schmer
Rache
Stabil
aufbewahr
Jen
##stone
##standort
Wuppertal
Hildes
Wed
##schaftlich
Ausdehnung
Krankenkasse
##kespe
FlÃ¼ge
ZÃ¤hne
SÃ¼dseite
##bestimmungen
orientierte
Ltd
##nÃ¤chst
Humor
kaufmÃ¤nn
##Mich
##Markt
abget
gewertet
##utherischen
lÃ¤ndlichen
kro
Frisch
Benutzer
##ungskrÃ¤fte
RB
Ment
##schles
Marathon
Gri
Erik
##rachte
##reiÃŸen
erwÃ¤hnte
##Vorsitzende
AufklÃ¤rungs
##rica
Hip
##autobahn
Aktuell
Schwarze
Grundrecht
Gill
##JÃ¤hriger
##rust
Flugplatz
Erwachsene
##Tra
Cu
##lÃ¤uft
Fair
Game
Cheft
15.000
##igerweise
Einzugsgebiet
verbleibenden
Lom
BSGE
Verwertung
enthaltene
##chi
##yers
##endienst
Mohammed
Herrschafts
##alp
Pi
##ilmt
Verordnungs
Kompositionen
##Spieler
Alternativ
RÃ¤umlichkeiten
##grab
Sax
wechselt
##Kolle
##amann
Haag
drin
##gewerbe
eingebunden
Unterhaltung
##ures
##kenntnisse
Bauvorhaben
##genossenschaft
Sorg
MilitÃ¤
##omotiven
Besiedlung
geforderten
Syl
ordnete
##ungskraft
Garantie
kritische
Besitzungen
108
##lehnen
Ã¶ffnet
Unterhaltungs
##Hin
##gift
abs
Sehn
eint
##7).
##opÃ¤d
Jobs
##veranstaltung
Orientierung
##Ã¤us
EnttÃ¤u
##fassungen
Auslagen
##antwortung
Ermordung
Aufteilung
##cin
Furcht
Ã¼berzeugend
##spol
MaÃŸstÃ¤ben
verschlossen
##Ã¼tzer
##grenzt
##jugend
Gelie
Magen
brasilianischen
gerÃ¼
##sverhandlungen
##orum
Pot
hilf
##Abt
fÃ¼nfzehn
befestigt
sportliche
##Gu
Raj
Asp
##garde
##Finale
Ek
##ifer
Nag
Raff
Moskauer
Kandidatur
##zien
Mitteleuropa
Scho
##lagerten
indessen
##Schw
##mans
Lenn
kalt
Ã¤hnelt
SchÃ¤tzungen
Minnes
unÃ¼ber
##ferenzen
Radsport
##arbeitungs
erweitern
Autofahrer
Nebenfluss
Cass
Abfindung
##vid
Mul
1600
Schaf
Streitigkeiten
xx
##hode
kass
Under
SchÃ¤tzung
##onanz
Antragstellung
##Gold
##marck
globalen
gekÃ¼ndigt
zitierten
##Luft
##freu
Lehrerin
Mediziner
zurÃ¼ckgenommen
##heide
##Ã¼ndete
##geordneter
Gattungen
bestreiten
##Hz
##OM
Ganze
##haushalt
bedienen
Schuh
zerstÃ¶rten
vermeintlich
##undete
abgel
Rausch
weichen
betreute
vorsieht
Begleitung
##Super
##plans
Knei
Alltags
Nicolas
##reger
##wÃ¤rter
Energien
konzentrierte
Fron
betreten
Scheidung
Vertriebs
Font
Kavall
##abwÃ¤gung
##gebrachten
hiergegen
Wiederholung
##OVG
106
##bÃ¤ren
konf
##Familie
Regierungschef
##On
1832
GRUR
##aufenthalt
Migranten
verletzte
##schuldnerin
##aller
Urban
Anthony
Frag
##wirkend
Gerichten
ukrainischen
##Prot
##Verordnung
Hauptrollen
Hochschullehrer
##abis
Gesp
##gebende
##kÃ¶ll
Kenne
ausgel
scheidet
Stuhl
ambul
jÃ¼ngerer
Konflikten
preuÃŸische
neur
Karne
andern
Edition
Wissens
##prÃ¤sidium
Abrechnungs
Staatsexamen
##/6
Benzin
Freundes
jenes
nehme
Mob
1844
##Ã¼chter
Bruck
Diesem
franzÃ¶sisch
HÃ¼tten
primÃ¤r
##arbeiteten
VerstoÃŸes
AbÃ¤nderung
##EP
schildert
##RÃ¼ck
##Ã¶ver
##Ã¼rme
##abzug
##utions
##ronomie
dÃ¤nische
GroÃŸstadt
brÃ¤
##Ã¤tigen
Shin
##altitel
##geltung
Fassaden
##zusammenhang
##itÃ¤re
fall
Selten
Assistenz
Pokals
diesel
offener
Internetseite
##400
Hospital
Wintersemester
Blas
Wirt
Platt
Airlines
##ungsbehÃ¶rde
kÃ¶rperlichen
Rechtfertigung
Story
Turner
##Funktion
Ã¼bergab
Auschwitz
organisieren
verschwinden
##Rot
Chen
Porn
##eiermark
angegebenen
Cav
Huss
Total
Sammler
vornehmen
Kommandant
orientieren
einverstanden
nam
##eigerte
##ugnisse
entstehenden
pa
##otti
Prinzen
Willens
Sot
Episode
zusammenhÃ¤n
ErschlieÃŸung
zurÃ¼ckhalten
##Mode
##cont
##ovice
Singles
kostete
absolvieren
durchzusetzen
##agan
1835
Invas
##unfÃ¤hig
##vorgÃ¤nge
Fitness
Tei
##allee
distanz
Dokumentarfilm
Worm
##sklinik
Renault
175
##arien
Hack
##griffe
korrekt
Zweitligisten
Gerd
Letztere
weiterentwick
gehÃ¶re
sexuelle
christliche
##schew
##angriffe
spanischer
##knoten
##Ã¼rzten
Night
2-
by
Laz
Produktionen
##MP
##ogl
ep
Leiterin
Zigaretten
##OR
##bR
##Club
Stor
GrÃ¤fin
##fÃ¼hrende
VerkÃ¤ufer
beantragten
##Orig
Heft
Prei
Lukas
gewÃ¼r
illegal
Bayreuth
##/08,
Kette
Spektrum
##ausgleichs
Bundesstaates
BP
##Durch
Parkplatz
##Szene
##ilden
bewal
Befund
psychischen
geschaffenen
Stellungnahmen
##fasst
##becker
schÃ¤tzen
Professoren
##Heim
##wirkte
pflicht
##assistent
hind
angemeldet
##lÃ¤d
##uda
##Ã¼chten
##richtet
##roit
Susanne
baulichen
konsequent
##steilzeit
Industri
##nachmittag
Fahn
Oberg
Abbildung
Bundesrat
##inki
rang
manip
FlÃ¼sse
##eigentum
ansÃ¤ssig
Harz
Momen
ausgenommen
Gegebenheiten
##count
##Ã¤chten
VwVfG
Weiden
Bildschirm
Ã–k
Krak
##sektor
getroffene
gerichtlich
hervorgehoben
##deb
##Region
Tests
##beurteil
stÃ¤ndige
##idd
##play
Jimm
##mÃ¼ller
Commerz
Darlegung
1842
##antik
(198
##inburg
Abfahrt
praktischen
##Rat
HGB
Nazi
Ansichten
erfolgreichste
##furter
Jesuiten
Montreal
sonn
Irgend
Geboren
Festland
##bewegungen
Disziplinen
AGG
##armen
Befugnis
modernis
Aufstiegs
Four
LÃ¼cke
dominiert
Prinzipien
Abschaffung
Rug
unab
Botan
ErÃ¶rter
Kunstgeschichte
HC
5.000
mÃ¶glicher
zurÃ¼ckgekehrt
##arben
##roman
##etristik
Leinwand
verringert
Boy
Kali
froh
Moral
##Ã¼cksichtigt
Volleyball
##Station
##zugreifen
GeschÃ¤ftsjahr
Edmund
Express
##produzent
konzipiert
Landessozial
##lekt
Skis
unterworfen
##Ã¤ule
1837
##.2013,
treibt
TÃ¶lz
##flossen
Soziall
Milliarde
KlÃ¤gerinnen
BAGE
##verbÃ¤nden
Steigerung
##Deb
##OLG
##bedarfs
##oga
qualit
Georges
USD
hierzulande
##cs
Â§23
hess
Action
Vorsteuer
Urug
Investitions
Sich
Schmel
##zubringen
##ochte
dÃ¼nn
Vorort
massive
##interessen
##San
nahen
Intend
Untergang
##Hel
##ippi
Ing
Schwab
Ausschreibung
##kels
Braut
Extra
Lesen
renoviert
Demonstration
##eneÃŸ
##irmen
Manip
Nebel
Buchen
PrÃ¤senz
Heilbronn
verurteilte
##quer
1843
GÃ¼lt
##Stre
102
gestattet
Ingolstadt
historischer
##Saint
++
Diskriminierung
##ogie
Dev
Jordan
AnschlÃ¤ge
Gesetzgeb
##Ins
Gesamtwertung
festgesetzten
##Oper
##igny
##willig
##scheinend
Bakterien
kritischen
Belletristik
Protagonisten
##sthe
##Person
Kartell
brauche
Triebwagen
##oi
Gefangenschaft
Kum
##reibst
##spÃ¤ter
Glanz
Public
Schwed
Flammen
Herzogs
##fÃ¼rst
Genre
FlurstÃ¼ck
getrieben
##unus
Achter
deuten
technischer
Altersteilzeit
##Dis
liefen
Shakespe
Badminton
Landwirtschafts
##Air
##rÃ¤nkten
Lothar
anwesend
##technischen
##pfÃ¤lz
Conne
##strÃ¶m
Pacht
##Jose
##erfolg
Mountain
##erbe
(Â§12
##testet
##eri
Trad
hebt
erachtet
Erfahrungs
revolution
##eing
##idad
rÃ¤t
##inken
##schne
Symb
Datenschutz
##UN
##beton
plÃ¤d
spreche
FrÃ¼hling
Kinof
Geisel
StraÃŸenverkehr
##rÃ¤nkte
##anstalten
Konstellation
##raut
##leister
Publikums
Vorliegend
##Gew
Erwin
Jahrtausend
##ede
##Fans
Zen
##aments
senken
Nordseite
##Drs
freut
##betreuung
Begleiter
Russischen
SO
##omaten
Queen
Genuss
HoeneÃŸ
##sammlung
wÃ¶chentlich
lateinischen
schÃ¤tzt
vergrÃ¶ÃŸert
Clark
Arbeitsleistung
##Kn
15-
Engine
Epoche
Zentimetern
gleichfalls
##mine
Uran
##schiffs
wÃ¶chent
gesungen
Â§31
##AffÃ¤re
Glocke
Greifswald
Kontrollen
publiziert
##Ã¤chsische
Rittergut
##bÃ¶r
##rict
##enturm
lernt
emotion
verheira
Umstellung
Verschulden
4:
Paten
##provinz
frucht
Fun
gÃ¤be
Pilger
Projekts
heftigen
Chi
grav
VerstÃ¶ÃŸe
schÃ¶nsten
Auszubilden
interpretiert
Sieges
Himmels
Municip
Elementen
Anstellung
ermittelten
##dan
Rade
Anten
##izismus
Gewissen
##Bel
##Arten
##grÃ¤ber
Global
RÃ¶ntgen
Chinesen
##Tr
IF
Darsteller
1838
Bridge
Kameras
Serge
Absturz
Vorhabens
Betriebsst
##Mer
Moore
Ankara
decken
beheima
##As
##stal
Kate
Kies
Rinder
verwir
##dependen
##programms
##mere
Eif
Skel
Umge
##iedler
attack
DebÃ¼talbum
##core
Liban
GÃ¤rtner
beschul
derzeitigen
##bit
Jess
Stress
##ttembergischen
##rikas
##teles
Moll
Minen
Zwick
Wirbel
Anstren
Standes
Musikern
entfernen
##spuren
##glieder
Werkzeug
Schuljahr
##icki
Lip
Kairo
##versicht
GerÃ¼chte
angeordneten
Mau
##lanke
##schÃ¼tze
unverzÃ¼glich
##300
##etik
##Ã¶ten
##esien
##grundes
JÃ¤nner
##naden
Kick
Ortsk
Versand
##sendungen
sinngemÃ¤ÃŸ
Magister
Vorlesungen
GrundstÃ¼cken
##/95
##bÃ¼ne
##ennamen
##ESCO
##helfen
Wohnen
##zuziehen
geborenen
Kfz
##Ã¤uber
##erhÃ¶hung
nutzten
##Korrespondent
freiwilligen
##Ac
##nest
iPh
Gitarrist
##-19
os
##Wenn
Memor
22,
##ardin
##bedingt
Reicht
derweil
schritt
korrespond
##kÃ¤ufe
ausgest
##wirtschaftliche
Alm
Ã–st
Bock
Vereinigte
denjenigen
##800
##irgend
Brian
Notar
##bewertung
Erstligisten
##ref
fa
##onda
##elson
Laurent
Wohnort
verhÃ¤lt
Bescheids
##Baden
##villa
Propaganda
KV
##metern
##issheit
##hir
##charakter
stÃ¤dtische
Bekannte
kurzfrist
aufgerufen
Gottesdienst
##court
##medien
##Mitglieder
zurÃ¼ckver
##Hier
##ather
##ringe
Airport
Hinterb
##Ã¶D
##ozy
##sÃ¤ure
##werbs
Okres
ZustÃ¤nde
zerstÃ¶rte
1:1
##schar
##uschen
##Mod
##atra
Liby
Ritu
holt
Reflex
Amph
##metall
Willi
Jochen
##igi
Sah
##Ã¶sten
GÃ¶tter
Bayerns
Schreibt
Dimension
empfiehlt
beanspruchen
##/14,
via
Verwalter
##lem
##itat
##greifende
##ikro
Isabe
Gehalts
zweigeschoss
##wiegen
##schnell
Werkes
obliegt
##woll
##Gegen
Expans
Tendenz
JubilÃ¤um
Asylantrag
Bundesstaaten
30-
##iertem
Dorothe
flachen
unterdessen
Maschinenbau
##fas
##atell
1839
##fische
Wiese
##unabhÃ¤ng
Vollzug
gÃ¼nstig
PrÃ¤sidentin
Dek
legitim
entstammte
nÃ¶tigen
Chal
Ehel
hies
Richtungen
##olin
##road
verei
BetÃ¤ub
werben
prinzip
regional
##forschungs
EinflÃ¼sse
FuÃŸballer
angetrieben
rÃ¼ckwirkend
##paket
toll
Galer
RÃ¼ckseite
erstellte
##maier
Chel
##LÃ¤nder
##bremse
erzÃ¤hlte
konfrontiert
diesbezÃ¼glich
Kaus
##ometrie
Luzern
aufger
wachsende
Ã–sterreicher
##SSR
##Phil
##ydra
##Journal
Nassau
politisches
Vanc
2010.
plante
##qualifiz
inmitten
wÃ¼nschen
Hoffnungen
wesentlicher
Menschenrecht
##drÃ¤n
fair
nomin
##modelle
nichtig
Commerzbank
Agn
##munder
Alger
##ungskomm
Hauptsitz
##bog
widmet
Stadium
Elektronik
Intelligenz
GÃ¼terverkehr
##schÃ¼tz
##breitung
verbreiteten
Isar
scheiden
aufschiebende
##Voll
NATO
##.2014,
Initi
Performance
Integrations
BS
##oney
grau
zwang
Grande
Theologe
erschwert
Vic
grÃ¶
##iance
##lalom
Melbourne
Abteilungen
tre
Gumm
Reim
takt
Lehmann
Unwirksamkeit
##lade
135
Sockel
Neumann
erleichtert
##LB
##hofft
##sebene
Beweislast
1700
Kret
gefl
Hitze
##EuGH
Lars
PalÃ¤
##sprogramm
gewohnt
Konzerns
Offensive
Stiftungs
erstattet
##dere
mÃ¤ÃŸ
Filiale
unternehmen
##szlig
nerv
schwÃ¤
gewiss
##strategie
##sehr
##zogene
erzeu
WÃ¤lder
##uez
gast
Vorbe
##ausfall
Brexit
Sozialdemokrat
##ekÃ¼
1300
Flex
StÃ¶r
##Arabien
##rog
1841
Code
Foss
Spen
##chtete
Manusk
Kabarett
Klassiker
kaiserlichen
##uÃŸe
ATP
##ietern
2012.
erinnerte
fÃ¼hlte
NÃ¶rdlich
abgeschafft
letztendlich
##ohnen
##suche
schwachen
##Meisterschaft
##Hop
##erit
RÃ¤tsel
Teppich
heimischen
hinterlieÃŸ
Sozialhilfe
Ausgrabungen
##altern
KÃ¶rpers
Umbenennung
vereinbaren
Journalistin
beabsichtigten
Neuzeit
##wendbarkeit
##olt
gewahrt
belegten
##steilnehmer
Leistungsbe
##iate
##DC
strengen
##UC
##wÃ¶ch
##erkannt
Howard
versagt
Begegnungen
Ding
##zufolge
Ã¤rztliche
entschloss
ZÃ¼rcher
Sorgfalt
##zutreffend
braun
##arian
##ierre
Lyrik
Vollzeit
dargelegten
Differenzierung
kenn
##tegien
Ã¼bertrug
systematisch
Zusammenbruch
##.20
Alf
heftige
neunten
Nahen
Ã„rzten
Letzteres
2011.
Kasse
Regul
Geister
Biologie
irgendwo
##ici
IA
Sv
25,
##zettel
Shang
gestohlen
verkehren
##geschnitten
Betriebssystem
##iod
##slos
UNESCO
##kommissar
##igers
Berl
Erscheinen
Klageschrift
Rick
Bosnien
zurecht
Ãœberwachungs
EMRK
Pfle
alli
##krebs
##Metern
##drÃ¤ngen
##vollstreckung
##range
1834
##ometer
##senkirchen
##ografischen
Sara
Aufruf
##lligkeit
bereitet
##gate
Gam
Trupp
Helsinki
Ã¶stliche
##nahe
MÃ¼he
Ideal
Wirken
indirekt
Gulden
Pommern
##Kan
##oin
##klub
##leiterin
Fischerei
herrschte
Exemplaren
erbrachten
Kohlenstoff
tariflichen
CA
Pent
##innend
Putsch
##mÃ¤nner
Treuhand
geschÃ¤tz
##disk
Lisa
Boote
statthaft
SolidaritÃ¤t
erweiterten
Einvernehmen
1836
Flughafens
##zon
Dag
##erste
##hÃ¶rer
2500
harmon
Umfragen
vermittel
Bundestages
umstrittene
##/07,
18-
Strals
Wohnraum
vernachlÃ¤ss
##ABl
##ranke
Till
##aussichten
gelo
##mischen
Magdalen
getestet
Jahrestag
Festsetzungen
##atives
1821
##beamte
##cor
##reb
##kalk
Siz
Peer
lock
aufta
##jewitsch
Kreistag
grundsÃ¤tzlichen
Belege
einzustellen
befragt
##regisseur
##gleichheit
Delegation
Psychiatrie
olympischen
neuem
##Syndrom
##ertoire
Verpack
berechnen
Philosophen
##rant
Lub
Fasch
##konzert
Debatten
Erneuerung
Versp
verkehrt
eingeteilt
Einem
Versuchs
explizit
##Pil
##egas
Hanau
Einordnung
chemischen
##zige
##otheken
geschÃ¼tzte
WDR
baden
##blÃ¤ttern
Wirkungs
Standpunkt
Ã¼berwinden
##ject
##stoÃŸe
##wahrung
Generall
besetzte
##funktionen
verknÃ¼pft
Cheftrainer
grundlegende
1812
Rosa
Heilige
EinkÃ¼nften
Supermarkt
erheblicher
##9).
##gste
verspÃ¤
ed
##vorm
##ransp
Stadtbezirk
##center
##preises
107
##Ã¤umen
Begeisterung
##ischte
GetrÃ¤nke
verdanken
abgeÃ¤ndert
##GV
Ried
##bruder
##ysteme
##willigung
Rin
cod
##ments
1817
360
EinwÃ¤nde
benÃ¶tigen
Baumeister
Ont
netto
Ebenen
gewusst
Bah
##.1998
##right
programm
etablieren
##zk
Must
entz
jÃ¼ngst
##lages
israelische
##ao
##ruher
##rÃ¤umt
MÃ¼nch
gelaufen
Vancouver
##rÃ¼der
##schÃ¶n
##leitungs
verwaltungs
VermÃ¶gensver
Entgeltgruppe
##fonie
##verlÃ¤ssigkeit
##Schm
##odest
Sendungen
angeschlagen
gegenwÃ¤rtigen
##Ã¤qu
Tee
##Ã¤lern
Hobby
##oke
##nutz
Fren
Vatikan
richter
##zeitpunkt
Mitarbeit
Ã¤hnlicher
##sub
KÃ¶r
Weih
##bewohner
##behandlungs
Staatlichen
Fri
##komme
WÃ¤hl
Vorfahren
##rett
##writ
1828
##ittern
##gewinnung
Dienststelle
##azier
Sten
http
Garde
geform
verrÃ¤t
Railway
abseits
provisor
ausfallen
PrÃ¤sentation
Time
fÃ¼nfzig
##jut
Ladung
finnischen
##Tat
##bricht
Draht
Econom
##gerechten
GroÃŸherzogt
offenkundig
##ipper
Head
wa
##sbach
##skrit
Filial
Verbleib
vereinigt
bestandskrÃ¤
literarische
##aver
##kler
##ingle
Guido
lieÃŸe
Steinen
seitlich
bestattet
##ftete
##genda
##gelernt
gebÃ¼rtige
##PI
##erklÃ¤r
Gitter
angeht
Handwerks
Weltwirtschaft
##urger
##flieger
verfÃ¼gten
Metropolit
allgemeiner
freigegeben
##krut
Sier
##flichen
fortbe
##entrÃ¤ger
erstellen
Alternativen
16-
Karib
Metro
Hofmann
##Ã¶hm
Great
Konsul
Rog
ert
wohlhaben
##also
Cruz
##undern
Heiden
Nikola
befassen
##.2012,
##werter
auslÃ¶sen
Weltrekord
Platzierung
##obi
##lligen
Foundation
##rass
Aub
Â§48
##gleichung
gÃ¼nstigen
##Armee
##droht
##hÃ¼gel
##stÃ¶ck
FahrgÃ¤ste
Stro
##weitung
##rud
##Arbeits
psychiat
zunehmenden
##tim
Toler
Vorsorge
Entertainment
##WR
Curt
Aufheb
##ikanischer
angelegten
zunehmende
##Staffel
Geschenk
Veter
Schlesien
Dokumenten
Â§124
Umgeben
##gesetzgeber
kanadische
â‚¬,
Meteor
##zutragen
##werkstatt
folgendes
##weckt
FlieÃŸ
Symph
##mitarbeiter
unanfechtbar
##igend
Plant
notar
##diensten
verstoÃŸe
##strebungen
kandidierte
Spekulationen
Laser
BrÃ¼dern
Cottbus
Ratgeber
Minnesota
##verÃ¶ffentlich
##Was
Aden
##zahler
Dess
markt
##Stadion
Marmor
teilnahm
Anbetracht
##kurz
##hÃ¤nger
landen
##camp
##loyd
##baidsch
##konserv
##mittler
##rauchen
geschossen
hinauf
vierzig
abgebildet
Widerstands
selbststÃ¤ndig
Johan
Streik
Treppe
AnnÃ¤her
hinzuge
Anweisung
##eo
##entums
##ikalen
KÃ¶nige
##stelligen
zugestimmt
persÃ¶nlicher
##moder
Kircht
Papiere
aufrechter
befÃ¼rchtet
Schulleiter
##PR
##essens
##maligen
terror
Reederei
zukÃ¼nftig
##EV
##has
2008.
Gedenkt
garantiert
##elta
23,
Tram
senk
200.000
Eingrupp
Kommandit
verletzen
abweichend
##rost
##ension
Tiger
##Bereich
##aue
Tet
##teiligen
##Richtlinie
Augsburger
beherrscht
Plat
floh
achte
Einwanderer
nebeneinander
Beet
koll
Bewilligungs
rass
Chines
Parameter
Zielen
Landung
schreck
Anzeigen
Dortmunder
##verbund
Lebenser
Anzeichen
pla
Reife
##ancial
Pfeil
##wÃ¼rdige
Detroit
QualitÃ¤ts
##baur
##Kinder
ZwÃ¶lf
befahren
##very
ele
Belgrad
##aufkommen
weitergehende
Din
##vester
Erdgas
Charlottenburg
Analog
mangel
verdrÃ¤ngt
veranlasste
FamRZ
neueren
##SÃ¤nger
Begut
NiederlÃ¤nder
SMS
unn
##indel
##windet
##Ã¤nderungs
erlaubte
##ungsvermÃ¶gen
Vorgesetzten
##Mot
##lÃ¤tt
##utern
Jama
Common
schwanger
produzierten
##7-
##illo
GÃ¤n
Griech
Unruhen
frÃ¼hzeitig
setze
##fehlerhaft
##note
Aven
Cant
Giro
Draft
Ecken
Torped
gegner
Besondere
Stadtverwaltung
##Metal
##teams
##nummern
architekt
rechtlicher
Satzungs
##wechselten
eineinhalb
##ehlen
Iren
KÃ¤lte
engeren
##:2-
Hey
Alice
BÃ¶den
Linkspartei
widerspricht
##epage
Hydro
Rasse
Ganzen
##interess
Stadtver
allesamt
versprach
Australian
##herine
##patent
##ulo
##track
Gard
##izitÃ¤t
##anziger
##bezirke
Werbungs
heimlich
GroÃŸmutter
##wirtschaftet
Space
trinken
##protokoll
wirksame
##missbrauch
Zimmermann
wiederholen
Abf
Nich
amts
Schiller
##sprechende
Beschleun
##Po
Elef
Maul
Tower
##scheins
Bonner
Innern
Magazine
attraktiv
entdecken
Verwandtschaft
##rÃ¶nt
##seiten
##ifferent
##gesprÃ¤che
Ereignissen
##leicht
##ouvern
Korps
Individuen
Verstorben
geringfÃ¼gig
euch
##quenzen
Venezu
##stÃ¤ndigung
Heimspiel
Ã¼berschreiten
Benachteiligung
##add
109
HÃ¤u
Guer
Hohl
##beitrags
oberste
Turniers
Gelsenkirchen
echt
kÃ¤men
skept
##Minuten
Johnny
Benennung
Volkswirtschaft
##can
Zelle
Ansiedlung
Vermietung
##lande
Riga
Chefs
Statue
Mississ
gefÃ¼llt
Scheiben
(1)
Cem
##zirken
Jimmy
##serbaidsch
##BG
Ã„qu
Advent
Tausch
Kolonien
aufkommen
demnÃ¤chst
kat
##Charts
angesp
zitierte
Steuerung
Empfehlungen
##600
##pit
Logik
brechen
Halbjahr
Theaters
anschlieÃŸende
Home
Kasten
##wertigen
##xx
AK
1,6
Olympische
##ippen
Minus
Raten
schÃ¤r
Passau
##befreiung
momentan
Unmittelbar
Leutnant
Wasserstoff
Schuhe
Aktuelle
Fortbildung
##kÃ¼
##/06,
##hose
##swerte
##rischer
##verbots
##englisch
##zufinden
herausge
Belastungs
zweifelhaft
Sup
Rotter
Unklar
BegÃ¼nst
Â§33
trennt
Flaschen
Nachkriegszeit
##got
OS
2014.
Kreuzer
fraglich
Ade
Ã„ra
Bande
Ethik
Gordon
Vorarl
vorherr
Liechten
auffÃ¤llig
TarifvertrÃ¤ge
##Hv
verlei
Schuldnerin
vollstrecken
##down
##sung
His
Boll
2013.
Neckar
zehnten
ArchÃ¤ologie
durchgehend
##brett
Hitlers
ethnischen
Priesterweihe
##.9
By
##lauen
##ological
##fla
Musch
Airbus
Ballett
sozialer
Boulevard
##ouv
##Ã¼bte
hoffe
Gleise
ablehn
gemeinsames
VerfÃ¼gungsbe
Gesetzentwurf
##edo
##iegeln
angeklagt
reichlich
ZustÃ¤ndigkeits
##etze
##noch
##asing
##liege
##onente
##wieder
Navig
MaÃŸstÃ¤be
steil
lauten
Lil
sur
bedeutsam
##osk
Buff
Tritt
PrÃ¼fer
Gesamtheit
zugehÃ¶rigen
funktionieren
OberÃ¶sterreich
##DLR
Hemm
##vorgÃ¤nger
Gitarren
Notenbank
##fund
##Gitar
Bond
##ildern
Verpf
angekÃ¼n
Anmeldung
3:0
Marsh
##prozent
goldene
BedÃ¼rfnis
112
100-
Princ
Besten
Zuwider
schwierige
Gebietsreform
Umgangs
##Ã¼berwachung
seltene
mg
Peru
##ogenen
Umland
zahlte
Filialen
##su
##/05,
##ulations
Stichtag
##ungsanordnung
##Not
Agent
Danzig
Langzeit
Polizist
irischen
##ija
##nde
dien
erlieÃŸ
##frequenz
Amerikas
Biathlon
Fotografen
gewonnenen
Renovierung
##bing
Brett
Japaner
beiders
MaÃŸgeblich
benÃ¶tigten
##tour
##klein
##nisch
##auftritt
aufgefunden
Ves
top
Verhinder
administrat
Schlagzeilen
##boy
##tennis
enorm
Palais
Angebots
RÃ¼stungs
Schreibweise
Kleider
fehlten
zeichnen
Datenbank
entkommen
##tentwicklung
Beispielsweise
Wiederaufnahme
##Ã¼mern
##atischer
Fertigung
verstÃ¤ndlich
##iche
##uchter
urauf
##brid
##skap
##uerto
##abgaben
2010/11
Symptome
RÃ¶mischen
Verdachts
##ols
Dopp
LÃ¤ngs
Reden
SÃ¤tzen
mithilfe
wettbewerb
##angelegenheiten
##stÃ¤rk
1808
##palast
##kommando
Verletzten
##jap
1,8
FÃ¶r
##kular
1825
##sommer
Fristen
bisweilen
inhaftiert
Werbungskosten
Dance
abzul
Marion
unglÃ¼ck
##stellenden
##eler
spir
2009.
Ã¤sthet
tÃ¶dlich
Favoriten
IntensitÃ¤t
Einbau
Transp
vertie
##betrages
6000
##Auswahl
##Magazin
Ã„hnlichkeit
Kit
TVÃ¶D
##.2009,
##intens
Geldb
Zuerst
##bekommen
leuchten
Mais
Robin
Karosserie
Sho
##gender
Periode
empfind
isoliert
drohenden
Schlussfolger
##Kur
##Kreuz
##kloster
bestraft
Ãœbertragungs
Niederlassung
WÃ¶r
##gedanken
schlafen
##bevollmÃ¤chtigte
##Dur
Ey
Ablehn
##weiterung
Weltraum
seltenen
verraten
gezahlten
vorgegebenen
##-5
##Fre
##irgt
##/2009
Englischen
Bester
Anderson
FBI
1833
VerfÃ¼gungs
Generalleutnant
##stars
Disney
Betreuer
Landesamt
Jahrhunderten
Haken
##eistern
Meldung
erobert
##reitungen
Mindestlohn
##WÃ¼r
IP
kub
##elevanz
Speise
##OK
iHv
VergnÃ¼
##schwester
Zylinder
fertigte
Toy
##Insel
##letzten
##weigerung
Ruth
##zehnten
BeitrÃ¤gen
##instrumente
verbindlich
##gebra
Henk
Porzell
dargetan
##auftragter
Journalismus
abschlieÃŸenden
##oba
##main
##Ã¤sse
Tall
Seelen
Westseite
Abweichungen
Polar
me
Jap
##bauern
##heblichen
Rechtskraft
Aer
##Wasser
Laura
stein
Butter
Bauwerke
aufgestellten
##rov
Viv
##drama
##atlant
Stuck
##beamter
Kletter
##iblen
1831
Pech
##jÃ¤hrlich
##log
Ple
##prakt
Schmitt
Erlebnis
steuerlichen
Modernisierung
##etor
##tauscht
Kuppel
##sproblem
Glasgow
ErmÃ¤chtigung
##VV
GM
BrÃ¼n
##ikerin
Marktes
schickt
##Pap
##Diese
Fire
impl
FÃ¤cher
Nacional
##omo
##angel
##wÃ¤nden
Tromp
Colorado
PortrÃ¤ts
vorzulegen
Strafverfahren
##ogne
##Abschluss
Gouverne
HauptstraÃŸe
##HS
##ef
Orle
Melod
emigr
Racing
Bapt
Irrt
Ihrem
erworbenen
##verhÃ¤ltnissen
##./
##bol
##key
ku
##utze
KPD
##edonien
fremde
AnsprÃ¼chen
verwandelt
Veranstaltungs
##gell
##Johann
##ifizierte
brauchte
Nominierung
afrikanischen
##stin
##Finanz
FÃ¼ÃŸen
##Ã¤chtige
2013/14
horizont
##Wor
Lack
Historic
Christentum
Sid
##flekt
Light
##grÃ¶ÃŸten
40.000
explod
Politikern
##</
##Aber
##Kanal
##platzierten
vermeintlichen
Â§19
KÃ¼rzung
gehÃ¶rende
##rasse
Pius
##igenden
Suizid
##fÃ¶rder
Freiwilligen
##IL
##ereig
krei
Nigeria
Ãœberlieferung
114
abgek
Kastell
FlughÃ¤fen
##ogene
##struppen
Erzbistum
Geldstrafe
Haltepunkt
##ML
pri
Paket
Verarbeitung
##best
##hatt
128
Stone
Wohlstand
Erledigung
Windenergie
##testen
genommenen
Gleichheits
Harr
hÃ¤us
##gottes
widmen
Parteitag
besagt
Liedern
Diensten
Bemessungs
Karlsruher
australische
##GeneralsekretÃ¤r
imm
erwarteten
Mathematiker
##ango
##oldung
Treib
Ultra
repar
Hunger
##Ã¤rmen
Sultan
Rhythmus
AbwÃ¤gungs
HÃ¤ftlinge
##iami
##viert
Kronen
##anbieter
),
durchs
vereint
wÃ¼nscht
##Auft
hÃ¼b
1400
##Ã¼ttern
Deport
Apotheker
Potential
gefÃ¤hrden
10-
Verab
##regionen
Bemessung
hingerichtet
##konsum
##drungen
Bestimmt
Erwartung
Schwangerschaft
##erts
Verg
Zeichnung
##/5
ZÃ¤hl
Bolog
planen
summar
kleinste
NeukÃ¶ll
##politisch
orthodox
weiterver
Hawa
Board
Teleg
Verzwei
Stadtteile
Rechtsfolgen
Lock
##osophie
signal
werten
erleichtern
##Ã¼bten
##olution
Android
Nazis
##gerichten
Resultat
Evolution
zukÃ¼nftigen
Ramp
Breis
Pedro
Sogar
Akteure
absoluten
##sog
1,4
Pank
1997,
Spand
Malays
Motivation
Wiederwahl
verÃ¤nderten
bekanntgegeben
Wetz
Birken
gewarnt
Kompanie
##otum
##sees
##sted
TÃ¤n
##iedlungen
verzeichnen
Bundespolizei
##otop
Unsicherheit
##NVO
##asar
berufs
dasselbe
##PrÃ¤sidenten
##-"
##Staat
Bagd
tags
##formel
Zertifik
angebliche
##ausstrahlung
entgegenstehen
##rou
##aman
Grass
##vorlage
Personenverkehr
AnwÃ¤lte
Schnabel
PrÃ¼fungen
Adams
##Zentrum
##Col
1819
FÃ¼ÃŸe
Hasen
##geschÃ¤ften
Schreiber
gewÃ¼rdigt
beschrÃ¤nkte
BÃ¼rgermeisters
##imum
IOC
##uston
##kaufen
marsch
Schiffes
bewilligt
verkÃ¶rper
dazwischen
eis
##Inseln
##Wettbewerb
##ated
50-
Pia
StÃ¶
##bringer
##lieferten
Dirigent
Hiergegen
Naum
##ieller
getÃ¤t
commun
ableiten
Abteilungs
1824
Speyer
Private
Hilfsmittel
hervorgegangen
111
Anm
Ji
Caes
Iris
##reuten
2009/10
illegalen
Beobachtungen
Leid
##hoheit
##schafft
Kriege
Stoiber
niedrige
wirksamen
##ulabschluss
Ausstrahlung
Restaurierung
beschÃ¤ftigten
(30
##achtal
Eingliederung
Hoffen
Gebietes
##ungsanspruchs
##Dr
##eichef
begeben
zulassen
materielle
wiederkehr
Gerichtsbarkeit
##ists
TÃ¤u
##rator
##essions
##nachrichten
##dB
AF
##oker
##rÃ¼mm
##ingst
Ertrag
dieselben
##werkes
Graph
menschen
auferlegt
Politische
Â§24
Schubert
##alisierten
Raumfahrt
Volkspartei
geleisteten
null
Trikot
##ativitÃ¤t
Mangels
auffÃ¤ll
Ã¼berlebt
vernichtet
##AC
##arin
Dil
##schmerzen
Tagebuch
Schulzeit
Informatik
Ãœbersetzer
Dienstleistung
##gst
##head
##Ã¼nen
Liegen
Stewart
##rike
##grube
teure
angehÃ¶ren
bekÃ¤mpfen
Indonesien
aufbewahrt
##1),
##AuÃŸen
ZÃ¼gen
SchwÃ¤che
abgestimmt
anfÃ¤nglich
mexikanischen
##ours
GbR
Releg
##satzung
Granit
Liberalen
BedÃ¼rfnisse
institution
nacheinander
##00-
Vision
Cannabis
geforderte
##ske
riesige
##stattungs
PopularitÃ¤t
##atom
Gig
Kings
besiegt
VerzÃ¶gerung
Demonstrationen
##Ã¶rpern
Bezahlung
therapeut
ausgeprÃ¤gt
hl
##quem
##.2011,
Quote
bestes
Festnahme
Berechnungs
aufgeworfen
2015.
##eichern
BischÃ¶fe
Brigitte
dunkle
2011/12
stoppen
Ruinen
##izz
Schaum
Ausspruch
Baustelle
Vollmacht
Dpartements
##versicherungen
##EK
##ielen
Tomm
##eitigen
Diesmal
##operation
##skontrolle
bearbeitet
Pauli
##frieden
##kritiker
Statist
unseres
##:30
##cos
##Code
##rugs
HÃ¤n
ruh
Armstron
Nationale
WohnhÃ¤user
nachtrÃ¤gliche
Lagen
heiÃŸe
1809
##stagen
Austritt
gefÃ¼hrte
Auer
##heraus
##feldern
Franziskus
Pos
firm
poly
Crist
BauNVO
##shut
Fix
##former
diskutieren
Â§28
##Heinz
Ivan
Individu
Missbrauchs
BK
bewirken
##Ham
HK
##coln
Formul
##aÃŸt
##Pass
##anfang
Ellen
Kennedy
beibehalten
BÃ¼rgerschaft
Kongo
folge
GepÃ¤ck
eindrucks
Wehrdienst
##>;
total
##ratshausen
##lse
##phe
25-
##thiop
##kÃ¶nnen
##laufbahn
##Schwei
##dozent
wertvoll
##ardt
dÃ¼ster
ErwÃ¤gung
##farkt
##onyme
Uruguay
Leitungs
plausibel
Bestandteile
##opath
Fang
##izip
Teilchen
Wahlgang
Bundesbank
Equ
##ering
##leppt
2016.
##Tochter
ganzes
Kavallerie
##betriebnahme
Verschieden
166
##beide
1822
Gutes
Zeilen
ungerecht
Bent
Esch
fÃ¶rdert
Physiker
##Fo
Khan
avanc
Sitzen
Slalom
Philologie
begrenzten
##arrt
230
Â§25
##Senats
glatt
##yll
Anschaff
Schmetter
zweieinhalb
ZurÃ¼ckweisung
##othek
serv
Claude
Orleans
etwaigen
gebauten
##issa
##ensis
##okals
2012/13
AktivitÃ¤t
Financial
Technology
##Gra
##andie
##stÃ¤mm
##ysler
Palm
##gipfel
Anthrop
Heizung
BegrÃ¼nder
gleichsam
Entlastung
##StZ
##Ã¶hnt
(...
Belei
Georgia
Bindungs
abwenden
tatsÃ¤chlicher
provo
##Ã¤tigung
Revier
ZerstÃ¶rer
steigende
##card
Hohe
trennte
Obersten
Oberbayern
betroffene
aufgegriffen
##apt
##stabil
##sprodukt
##Ã¼rzungen
Ãœberfall
##rina
1801
##alischen
##eddeutsche
neunziger
##irma
Pfand
bloÃŸen
Verteidig
Geschlechter
##3),
(197
Pall
##stÃ¶ÃŸen
Gattin
##spektiven
Ebersberg
Flensburg
##lieferungen
inhaltliche
demokratische
Rost
Theorien
abschlieÃŸende
##Bad
##iak
##schwÃ¤
Nenn
Arztes
##getriebe
Lokomotive
##Vide
##onial
##wiese
Ernte
emerit
Quanten
Differenzen
##bedÃ¼rftigkeit
angetreten
MilitÃ¤rdienst
##Ã¤hle
Kelch
Lieben
Rechner
Diplomaten
##rogen
Berk
Apoll
Elektronen
##uba
Borde
##staates
Santiago
Sponsoren
unentgelt
fortsetzen
PreistrÃ¤ger
Vorgehensweise
FDLR
Reichsk
Fachleute
Ortsteilen
KÃ¶niglichen
ausreichenden
##steige
iPhone
UK
##iard
##paare
Andy
Order
Tragen
##Les
##steu
##frÃ¼her
Dingen
Tasche
Michail
Mittern
Politikerin
abweichenden
##pos
rÃ¶t
Karol
##erstattung
AktionÃ¤re
##preistrÃ¤ger
FuÃŸballnational
##sar
TH
##kÃ¼nstler
Goldenen
Slowenien
##rod
Kiefer
lauter
entbehr
komplexen
Herstellungs
gleichnamige
##/98
##ossa
Lon
Jane
Pfor
Unzu
Filmem
Graham
Paulus
##sstruktur
Elektriz
abgezogen
BÃ¶hm
Hacker
SÃ¼dlich
Skulptur
GÃ¼ltigkeit
angebotenen
medizinisch
##eley
Grundbesitz
eindeutigen
##Paul
2008/09
Verfall
##marschall
verwickelt
eingefÃ¼hrten
##/199
Fut
1807
kurs
Minden
VerspÃ¤t
verheer
einstimmig
ergangenen
##ehre
Reiz
##lÃ¤ufen
##malige
2007.
##ungskomp
folgend
Independen
##arium
wozu
##amment
Arbeitsentgelt
##ashi
##Stein
StoÃŸ
##gebÃ¤uden
Ausweis
verpasst
##wirft
##werbes
##konzerns
LandstraÃŸe
Kiss
##anfall
##ristet
verzÃ¶
AusprÃ¤
Mobilte
benachbarte
Wass
Exekut
Carsten
sowieso
Ausschusses
##DK
TA
Â§21
sinkt
Litauen
Missouri
Motorsport
BVG
Werten
aufbauen
streitig
scheitert
rut
##ielte
Pensions
unbekannte
BrÃ¼ck
Weiss
2014/15
Schlangen
einstweilige
##delt
##griech
##undung
Prager
interne
auswirken
Wiederholungs
Gerichtskosten
Zag
##ikale
Glock
Ziegen
Indizien
Techniken
GeschÃ¤digten
##iza
KÃ¤fer
Effekte
Ostseite
##zusprechen
trainierte
eingegangenen
ausgeschrieben
##imi
##jord
7,5
Afro
stÃ¤rkste
KrankenhÃ¤user
Bac
Frey
Harb
Harmon
PR
##sons
kurd
Medium
##Friedrich
befristet
##itÃ¤r
##pokal
##Ã¼chtig
##ianischer
Edinburg
Prostitu
freiwillige
altes
mÃ¤chtigen
GlÃ¼cksspiel
Vegas
Zerem
##Millimeter
1798
Mantel
Baseball
Strahlen
untersuchte
Gewerbegebiet
Ce
Qubec
Mythos
StÃ¤mme
##festival
Stadtzentrum
##Krieg
Bilden
VertrÃ¤gen
Steiermark
geheiratet
##TH
##olas
Sla
Udo
Angl
##gestell
##handeln
geschÃ¤fts
116
310
Isa
Over
##aufbau
alarm
Marktanteil
Studioalbum
##cester
Anspiel
genieÃŸt
geistigen
##Eisen
1829
Cook
##rÃ¤chen
Backstein
VerfÃ¼gungsk
##Volks
GrÃ¶n
##Festival
##zeitliche
##netzagentur
##Ã¤ums
##Ã¤rchen
##unglÃ¼ck
Titeln
##2),
##pes
##Herr
Hipp
Billy
Meldungen
Mississippi
auslÃ¤ndischer
Schlager
Hildesheim
sozialdemokrat
Vertragsschluss
##Mal
sorgten
Vermarkt
##.1997
Chap
minim
##ssitzung
Wiscons
bemessen
fiktiven
verhÃ¤ngt
Expansion
Bestseller
Versicherungen
##EO
Dete
##verlag
dekor
besuchten
Schwerpunkte
30,
Dak
Fame
Adopt
Pyram
Queens
gestoppt
Abmahnung
Schenkung
vergleichen
Umweltschutz
Zivilprozess
unzutreffend
Ã¶ffentliches
118
BAT
auftrat
Herstellers
Lucas
Patron
District
entdeckten
Brandenburger
##-17
Low
##hÃ¶hle
lokal
Holger
##Wegen
Hoheits
Bodensee
verwundet
Ã¼bersehen
bewÃ¤ltigen
##falle
1996,
##schwemm
Obdach
Walther
Rundfunks
gewÃ¤hrten
zugerechnet
##bÃ¶gen
##wirkungs
Drachen
##sbewegung
Heranzie
Kirchturm
gewechselt
verringern
##anbau
warnen
EntwÃ¼rfe
Zentrums
vorliege
Zeitalter
##arifvertrag
Cad
unend
##pedition
Erholung
zerstÃ¶ren
erkennende
##dpa
##straf
Lech
##spielt
Monopol
##stellende
verleihen
Abschnitte
##parat
##ittert
##helferin
beginnend
Senatsurteil
##.197
Uhren
fliegt
ErtrÃ¤ge
Evangelisch
vorbereiten
##tat
Autors
##atorisch
Francesco
beanstande
Traditionen
##iren
tier
##knecht
Diabet
Engels
AnlÃ¤sslich
darstellte
##uy
##anes
##warte
Lipp
Niedergang
zukÃ¼nftige
grundlegenden
lebend
zukommt
aufgesch
ermittelte
Creek
##ference
Toleranz
groÃŸflÃ¤ch
Lese
##dingen
##wender
Gebirge
Segment
##onner
##christ
##ptions
Billig
auftritt
vorherige
##teilig
gewicht
ua
##bnis
Ruhm
##bringt
##eschen
verbl
unzÃ¤hl
FreizÃ¼g
##giene
Sony
Siegel
aussieht
##angt
##opel
mitt
##marine
andert
Atlanta
gebaute
Gymnasiums
thematisiert
##lyn
pers
##profil
Panik
Rassen
Sexual
##esie
##Mails
##ungel
Klarheit
russisch
westlicher
kommunistischen
Lug
RVG
Pilz
Rott
##gewinne
##mÃ¼ndung
Ã¤uÃŸert
##ungsbedarf
Unentschieden
Cel
gestÃ¶rt
Prognosen
ungarische
wenngleich
Evangelische
Landschaften
##itters
##umfang
Bastian
Kirchspiel
verletzten
Rechtsgrund
Bed
quant
Server
sogleich
zeitweilig
gefÃ¤hrlichen
##abent
##echen
##igere
Mittels
Vernunft
teilzunehmen
Senior
Disposition
Jas
Gonz
beheimatet
kennengelernt
##Schl
Cow
##euert
Kilo
##archen
Chart
malte
##Ã¤dagoge
Fantas
WÃ¤ldern
verschwand
Celle
innov
Mehrzahl
GesprÃ¤chs
Intellekt
##anon
##motiv
Sack
Taiwan
teilten
Albanien
##Wirtschaft
##_3
bemÃ¼hte
nannten
selbststÃ¤ndige
AL
##Ball
##heid
Sop
glaubte
bestÃ¼nden
FÃ¤l
Oden
seel
Zeche
##opplung
##reundet
Naturpark
Olympiast
Substanzen
betriebenen
##ymne
##lowen
nack
##herzog
direkter
sÃ¤mtlicher
##roth
you
Pick
Sund
rufen
profitiert
einzubeziehen
##Rhein
Hunt
innehatte
heutzutage
##Hit
##empel
gewei
##staffel
bezwei
##schlacht
formell
##ungsbefugnis
##fÃ¶G
##sell
##Soweit
ErwÃ¤gungs
jÃ¼discher
interessante
##arctic
##massen
Havel
mangelnde
schlÃ¼ssig
inszeniert
nachweisbar
##rizona
TÃ¶tung
##Ul
##iby
##Ã¼nkt
Garnis
Deckung
relevant
RÃ¼ckspiel
##ministration
##rake
Korb
Miami
##elegung
besorgt
standard
ErgÃ¤nzungs
Fortschritte
##ew
##load
Mov
bÃ¶hm
##studio
##wurzel
Fraktionen
[unused_punctuation15]
March
super
Powiat
hellen
144
##bildes
Teher
##okratie
Nordsee
Attentat
Vollzugs
Eingemein
vergangene
Realisierung
nachzuweisen
##lov
##zgl
##zio
sÃ¼
Neut
Libanon
Prominen
Monarchie
Sportwagen
##busch
##llige
Echt
Hamp
Elfen
Treue
betÃ¤tigte
##werf
##pfels
1802
kÃ¼hl
Zugrund
Erwerber
Geschoss
Rechtsanwalts
Laf
##.2010,
WÃ¼ste
##zuteilen
MilitÃ¤rs
Zeichner
neuesten
##ssicherheit
interessierte
##jak
##emmt
Loc
(180
bist
KÃ¶pfe
flÃ¼ch
##gÃ¼
##kteur
KÃ¶nnen
Schirm
##befangen
Ehrendo
Endrunde
komplexe
Autonomie
schwarzer
tÃ¼rkischer
##mak
slaw
Kolum
Konten
Liebhaber
Universal
wiederauf
Altersrente
Departament
##iose
##phal
1826
##ferien
##fÃ¤nger
Monika
Bauzeit
Angriffen
##otz
Â§52
WÃ¤re
Sorten
Ausgehend
erloschen
nachgekommen
##Gener
besp
handle
zustimmen
##hyd
PKW
Salt
##eignen
Spion
##attungs
Ronald
ErÃ¶rterung
##bzw
ausb
##anteils
Schokol
dauerhafte
ausgetauscht
Ã¼berwiegende
##eng
Mordes
zusteht
Referendum
ordentlich
##bescheinigung
Heranziehung
122
Pfei
warm
##linden
Kelly
##vergenz
##prozesse
GerÃ¤ten
VerzÃ¶ger
Entwickler
Technische
##facht
aufnahm
Teilweise
Kommunisten
gewerbliche
wiederholte
Adelsgeschlecht
op
Japans
sonder
##zukommen
Stasi
Welten
FÃ¼rsorge
Suf
##treue
Strafra
Invasion
Ãœberschreitung
Nan
##zeuges
Prince
umwelt
aufhalten
Ausweitung
Biographie
Ãœberschrift
Nukle
elter
schme
Sofort
beziff
##ausenden
spendete
erfordern
aufgelistet
finanzieller
##rack
graus
illustr
Webseite
Politisch
intellekt
##hinein
Mitch
##alliste
Schreck
Edinburgh
FÃ¼rstentum
aufsteigen
Gemeinderats
##Maxim
beer
Vortrags
EinbÃ¼rger
Kreuzberg
##unterbrochen
##ungsvertrages
Sommerspielen
##It
##Tri
##erhalt
##rÃ¼ckte
Virus
autor
SÃ¶hnen
Messung
kompens
[unused_punctuation11]
##astrophe
##einsÃ¤tze
unangen
165
Touren
Konzerten
Lebzeiten
angefangen
##rier
Boeing
Estland
erlÃ¤uter
##aldirektor
Programms
aufgeklÃ¤rt
(Â§5
abt
##feste
##ypoth
Maut
Messen
realen
Zentren
Verletzungs
##vom
##zeÃŸ
Fat
wisse
Mongol
##einfluss
##mehrheit
##reibungs
verborgen
griechisch
##Rund
##/2004
##ilton
Carb
##ppchen
Rapper
Komitee
polnischer
verstÃ¤rkte
##blÃ¶
##pur
Lutz
Ã„thiop
##schaltung
Konzerne
##ergebnisse
keinesfalls
rumÃ¤nischen
##anforderungen
##DO
AA
Verp
Antonius
stÃ¤rkere
entfernte
Islamisten
anderthalb
Bundessozial
29,
##Daten
alltÃ¤
##schalten
Vincent
Absicherung
ungewÃ¶hnliche
##sachen
##zahlungs
##besetzung
##Wie
##oka
##strÃ¶
##Trans
WÃ¼sten
Ansbach
Homepage
enthalte
Spielbetrieb
##him
##gefÃ¼
WÃ¶l
##cticut
Vorhanden
durchgefÃ¼hrte
##Ser
##Vier
##atta
##ieters
##spektor
2015/16
Einholung
fortgefÃ¼hrt
##unz
##europ
UdSSR
##schenkel
besetzen
##architektur
Vermittlungs
Marokko
##ucc
Us
Hansestadt
alternative
Kalenderjahr
##Mat
##oner
film
abgesagt
Unterhaus
kennenlern
Entstehungs
Â§32
Bruce
##beziehungen
GaststÃ¤tte
##ampagne
Sofern
AnhÃ¤ngern
Ã¤uÃŸersten
##anzt
##etal
##Ã¼ttet
Emma
brannte
Shanghai
Befragung
geschicht
opp
##ziffer
Vergessen
Schlagzeug
##uden
##lÃ¶ste
##design
Ralph
Skispr
nordrhein
##klin
Guy
kos
Welter
##Ã¤stinens
##ssituation
Freilassung
Konservatorium
##stau
Kei
##kraut
Wern
##heimen
schÃ¼tzt
Potsdamer
antwortete
it
1811
Arbeitsgruppe
##IG
##Aktien
AnsÃ¤tze
##deutscher
Asteroid
##Ã¤pstlichen
##ausstellungen
lux
##grÃ¼ne
enor
Salon
##widerung
Einzelne
Fernando
benutzte
dreizehn
Publikation
wechselnden
Plak
kenne
Recherche
Stralsund
##scheinungen
##8).
##avier
##boote
##nahmt
Behr
##behÃ¶r
##ualen
Mast
nÃ¤cht
##zwanzig
Ã¼berwacht
##dal
AM
##Erfolg
##Mittel
##wettbe
Porto
Staud
##ursache
Lieber
##verdacht
Theatre
WÃ¼nsche
intensive
gehaltenen
vorgenommenen
##rung
Spree
della
Armuts
Bagdad
Leider
Teenager
beworben
beeindruck
geschuldet
##untersuchung
Meeresspiegel
zÃ¼
##anta
Sucht
Signale
Pauschal
vorstehenden
##holte
muÃŸte
anscheinend
##azit
Luise
Posen
Generals
Gesichts
Folgejahr
schwimmen
Mitternacht
26,
Â§47
Expon
##wÃ¤ssert
Ziffern
weitest
gedruckt
einseitig
widersprechen
Nit
Cock
##Lebens
Anmer
verjÃ¤hr
##verfÃ¼gung
##zeitungen
gÃ¼nstige
Herrenhaus
BrÃ¤
##lichter
##retungen
hÃ¶lzern
VortrÃ¤ge
unerlaub
abzulehnen
Kompetenzen
Volontariat
ordentliche
##qm
##igh
##blig
sek
##reibe
Card
sagten
betraut
##institute
BefÃ¶rderungs
zurÃ¼ckkehrte
##splant
kauft
Bahnen
Steffen
##leiÃŸ
##ping
Jahn
##leidung
Ehesch
Musikt
##bab
Apfel
Little
Dynamik
sachliche
GeschÃ¤ften
Realschule
Schreibens
Altersvorsorge
##hos
Kalt
##drucken
25.000
Genfer
StrauÃŸ
Madonna
##niederlage
stationÃ¤ren
Ã¤gyptischen
##kreu
sort
##grÃ¼nen
runden
wÃ¶rtlich
124
##essee
##obile
##rence
##flotte
##willen
genutzte
##phin
##sbek
##zeichner
Admiral
##rankheiten
Befreiungs
eingelassen
teuren
Apotheke
##essur
##ischÃ¶
##opter
Lena
suchten
CS
zwÃ¶l
##wÃ¤sche
1995,
##preisen
Karibik
Ortsname
Neuordnung
uraufgefÃ¼hrt
Anwendbarkeit
StaatsprÃ¤sident
##Aust
(14
NGC
##losse
misst
##Univers
Austria
geholfen
anzubieten
##bens
Nort
MÃ¶nch
Anleihe
StÃ¼cken
Communaut
##ude
##imon
Gib
Isra
Mozart
Podest
Schwieger
TorschÃ¼tzen
herkÃ¶mmlichen
Gla
Reb
##stahl
##Verkehr
gelben
Lincoln
##geschritten
aneinander
Continental
nachfolgend
spezifischen
Fachhochschule
Maiz
Moss
klÃ¤r
Magist
Devisen
Konvent
##Lo
Tyr
##eiste
##Ã¤ndlern
Elektrom
illegale
Richterin
NachprÃ¼fung
Rechtsstaat
Studiengang
Mitgliedstaats
##Ã¤lt
Ue
##Wohn
##anner
##traut
1790
##Jahres
##ussion
flank
spekul
Abnahme
##bedÃ¼rfnis
##Ã¤hnlichen
Analysen
Ausstieg
BlÃ¼tezeit
verfallen
##bÃ¼ttel
Betrug
Chromos
abgenommen
kirchliche
umgerechnet
Set
##belle
Villen
beides
Cameron
vollstreckenden
##beob
Bologna
Kolumbien
Namensgeber
versicherte
##Bus
klag
Blech
##enswert
fÃ¶rderte
kombiniert
eingebracht
##Staats
##iftete
RÃ¼gen
Pausen
stimmten
Rotterdam
Wahlbeteiligung
##hom
SP
##bebauung
objektive
Aufrechter
##arg
##riesen
##umsatz
##amerikas
Treibst
gewordene
muslimischen
Crow
HÃ¤tte
Lausanne
##alente
Biber
propag
konservative
Yam
herz
Agenda
schwÃ¤ch
##spflichten
Windkraft
aussichts
Gegenstands
ausgehenden
##arier
Lekt
##anntes
kommend
##seinkommen
theoretisch
##Ã¤rs
##ragung
Abgas
rÃ¤umt
exklus
KÃ¤rnten
##kilometern
Ã¼bersteigt
Todesstrafe
##orca
##Fiction
##schwanz
ErzÃ¤hler
##instrument
Armstrong
Gastronomie
Berechtigung
LandesstraÃŸe
##aber
Tante
gefÃ¤l
regiert
##upe
##rasen
Kahn
##.2015,
##greift
##ategorie
##denklich
##faktoren
Nachfol
##geschwind
##hub
##:200
1805
Dekor
empir
##hÃ¶chste
##Dynastie
##parteien
BImSchG
Teilhabe
that
meldet
scheiterten
##melde
##gesund
##Ã¶hnung
Range
Konzepte
maÃŸgebend
##RT
Sehens
Beliebt
Jonathan
Zugrundelegung
##rah
bo
##mitz
verschl
##gium
##gewÃ¤hlt
Libyen
fester
verbieten
AB
NÃ¤hr
Strop
Schmerzens
Unterseite
eingereichten
##',
##Den
BGBl
gebr
##gattung
prÃ¤gte
##forderungs
Marseille
##aida
Scheid
Zusage
##wirtschaften
Instrumenten
Grundgesetzes
##Bat
##grat
##Kunst
2006.
Ostern
##standards
Klinikum
Leonhard
renommierten
##utta
Dennis
Beschwer
jahrzehn
##Union
gerin
##essungen
Rid
Ontario
alkohol
##produkten
ausgezahlt
Sprengstoff
##vorstellungen
##See
##Ã¶scht
Dokt
kreu
##standet
Untert
nÃ¤here
Kurzfilm
Antarctic
Anfechtung
Gerichtsbezirk
##Cent
##Sonder
BAfÃ¶G
Melodie
AuslÃ¶ser
verkÃ¼rzt
Problematik
Schadenersatz
FK
##Ã¤rkt
182
Lak
##bourg
##katalog
abzÃ¼glich
schlimmer
##hund
Emm
Anwalts
Favorit
##>).
179
Zwerg
##verbote
Ã¼beraus
Bismarck
GrÃ¼
##lieÃŸe
vÃ¤ter
weitem
##ucky
Â§27
##uscon
BÃ¼rg
Lith
##Ã¤dagogische
Schwarzwald
SÃ¤chsischen
systematische
Ryan
beid
ErdÃ¶l
Kliniken
Infektion
Messungen
##itch
Vierte
position
Mythologie
japanischer
fur
fÃ¤l
bibl
Korea
MÃ¤rkten
BlÃ¤ttern
Bundesamtes
Abends
##spolizei
erweisen
liberalen
wenigsten
AnschlÃ¤gen
Beteiligungen
##idas
Posit
alp
Arsenal
##ministers
gelangten
##spanne
Gestapo
beanstandet
hervorgerufen
erstinstanzlich
zeitgenÃ¶ssische
133
Ted
##ortes
Pull
Grill
##itation
Kronpr
Dynastie
Protesten
Ole
Quad
Radar
errechnet
mutmaÃŸliche
##voraussetzung
##sal
157
##gewÃ¤hrung
Zuschuss
Repertoire
##0)
##pez
Abb
Ley
##Reich
weswegen
MS
Nikolai
Ã¼berregion
ErlÃ¶s
rÃ¤umte
ergreifen
Bak
##worter
##rechnen
Venezuela
ununterbrochen
##Lie
2:1
Trick
zuges
Nachhalt
##maz
##preuÃŸ
Kemp
Monaco
Vorgabe
neutral
Besprech
zweitgrÃ¶ÃŸte
gewechselten
Ny
dot
Bemerk
Schaff
unverm
GehÃ¤use
Pes
Ernest
Ã¼bertragenen
Pfe
Kabul
##gelegene
##ausschluss
##.2.
##Prin
##genau
##zeits
Death
Herzin
##strahlen
Apostel
letztere
SD
##ofen
1823
Erbfolge
ergÃ¤nzenden
##irs
27,
BuÃŸgeld
intensiver
##tiere
Loren
Puerto
erwartenden
Einzelhandel
Personenkreis
##FDP
Gedenken
vorsichtig
##Hil
GÃ¶tz
##inenser
strahl
gesenkt
GewÃ¤ssern
auszuÃ¼ben
##5).
##lia
rat
Mega
##Ungarn
##ammlungs
Folglich
angelegte
gezeichnet
einsetz
gewollt
Vorabent
jÃ¼ngster
Gesichtspunkten
##anga
Nahe
Whit
##Ã¶konom
Ausge
verbleibt
Supp
Dutzen
blickt
##arktischen
eindeutige
vertretbar
Hl
##Satz
Gun
##fizite
##zugang
herstellen
Bundesagentur
HS
##herz
tri
##Autor
##vorteil
Hawaii
MÃ¶nche
sorgfÃ¤ltig
Tw
##flut
Alba
##giebel
geeinigt
psychische
Wu
##lieder
##angebote
Gesangs
Russell
herausragende
##lli
##Oder
Logo
##ousine
Ãœbung
Ãœberzeug
##aufklÃ¤rung
Ã¼bergegangen
##Ta
Tont
Anbindung
##Glet
##iela
FÃ¼rth
Sonst
nÃ¶tige
rechner
Friedhofs
##ungsbedingungen
Bd
NDR
Cord
##spektion
##pauschale
erlernte
Immissions
verbreiten
##umpe
Hud
##rannt
1827
Blind
##abstimmung
1,1
stoÃŸen
Folgendes
geschenkt
VR
FFH
##GrÃ¼ne
VersR
Kaufmanns
EnttÃ¤uschung
##rena
##anton
Edgar
Sachs
Franco
Einfach
Bauweise
hindurch
Rohstoffe
Stal
Melde
##Weltcup
Benutz
gesendet
schenkte
erkennenden
Menschenrechts
##Pop
Falk
##olische
Fleder
bejaht
Sondern
Strafen
eingewechselt
Wat
##stopp
##gemÃ¤lde
alters
##nachweis
schÃ¶ner
##flÃ¼sse
##ickten
fÃ¼hle
Ochsen
##partement
vorkommt
##Rom
bemÃ¤n
##kischen
Bienen
grÃ¶ÃŸeres
beeintrÃ¤chtigen
##direktion
entsprochen
Medikamenten
##7),
Run
Roboter
##alisierte
BestÃ¤nde
professionellen
##DAC
##prem
eth
verschlech
Regierungschefs
(2)
FrÃ¶
ther
##papiere
Labour
PrÃ¤mien
Erfassung
Mountains
Stipendium
inspiriert
angefertigt
Folk
KrÃ¶n
Sofia
Dynamo
Auftritten
Individual
analysiert
Leistungser
##vic
DC
##inas
##inie
byz
##groÃŸe
##lerin
##eisten
Lloyd
Stolz
WÃ¤nden
Sportarten
Wettbewerber
Klageverfahren
sozialistischen
##cla
##ratz
##ulver
Zaun
wÃ¼ten
Harris
Prophe
vorgelegte
##Beit
unum
Antik
Ortskern
Ã¼berholt
##bewusstsein
PalÃ¤stinenser
##ON
##ands
BefÃ¤h
##fÃ¼hrend
gefÃ¼hl
Buchstabe
Vormittag
Marktplatz
##gegenstandes
##.16
Plas
harm
##rippen
Rugby
Stief
Franch
doppelten
UnabhÃ¤ngigkeits
Spazier
Zeitgenossen
##Sal
##Origin
Louise
Erzieher
Porzellan
vertrauen
tropischen
##iom
las
Â§44
##apolis
##ranche
fÃ¼nft
Nelson
Sterbe
##Dat
dA
wem
Fiat
2.000
Hilfen
Ringen
##unterschied
##stÃ¼m
Birg
Mort
lohnt
##legenden
drittes
Quartier
Aktivisten
zusÃ¤tzlicher
Fehlverhalten
diplomatischen
##Fach
330
##agent
##intern
Kanon
fasst
Stause
SÃ¤uget
##undzwanzig
Nachweise
Abwicklung
Erinnerungs
ausgefallen
HÃ¶fe
##felden
unnÃ¶t
Fenstern
darzulegen
spezifische
##informationen
Hauptquartier
123
Allee
##Ã¤ngliche
##flugzeuge
SchlÃ¤ger
Apotheken
Elefanten
verhandeln
##kau
650
Blu
Let
wiesen
##Pre
##rade
RAF
##arest
##Ã¤lzer
Ã„nder
Autobi
Staffeln
entfalten
bedeutendste
Stie
vorlegen
Klageantrag
hinreichenden
streitbefangen
MÃ¶r
##Mitte
##Fahrer
jemanden
Philharmon
erstaunlich
Fernsehserien
##ady
##strei
Zorn
reist
kÃ¼nstliche
Montagabend
Liechtenstein
5,5
wÃ¤hlt
bitten
Homburg
##senslalom
320
FIFA
Forest
Modern
Dividenden
Interessenten
##4),
Goldene
geflohen
konstant
##beteiligten
sicherstellen
Lehrern
##ungsgemÃ¤ÃŸ
geschaffene
kommentierte
##teneg
einnehmen
##usa
Erw
##links
Lauter
Fotografien
erschienene
ordnungsgemÃ¤ÃŸe
##AVG
Schen
##rÃ¤glichkeit
Haftbefehl
Engagements
Beitragspflicht
##arme
XVI
Maas
Rapp
##stimmten
unwider
##reichsten
Hindernis
Jugendlicher
1793
Uner
VÃ¤ter
##Maximilian
sc
##hals
113
codice
Misstra
BefÃ¼rcht
Religionen
##iuse
Bret
Vall
##justiz
Illust
Zister
##iG
4)
Ler
Verdi
lehrt
##eldeten
##lagerte
##spitzen
##VerhÃ¤ltnis
Berluscon
unbef
achtziger
##aktivitÃ¤ten
##ych
Pfad
Dichte
Roberto
vermÃ¶gen
intelligen
Kraftfahrzeug
spezialisierte
##Natur
##szeit
##ingischen
Verhaftung
verlÃ¤ngern
Inbetriebnahme
##ilsen
##weils
...,
Borg
Balken
radikal
gelingen
montiert
ReprÃ¤sent
mittelbar
##jana
28,
##haler
(Â§13
Amal
Dark
Haas
Depot
Jonas
niedrigeren
##krÃ¶
Office
drÃ¼ckt
Schuldners
McL
##demann
##FÃ¼hrung
Modellen
##sohn
126
Kreb
##trauen
##Berliner
sexuell
Eheleute
Christina
Wertpapier
urkundliche
145
absur
Effizienz
##bayerischen
##onde
260
Boss
Hyper
Brandt
##vorkommen
Facharzt
befÃ¼rwor
zentraler
##eith
##nette
##balken
Saale
Gedanke
wirkten
Schiefer
StÃ¤rkung
verursachen
Jel
pein
Polens
Mehrfach
ankommen
anzuerkennen
schrittweise
##VGH
##ilo
xxx
gefÃ¶rder
Testaments
##artz
zir
Israels
Besteuer
Malaysia
##gÃ¤u
##kenn
fre
##onten
Nina
Soul
##phasen
Scham
##ungsanstalt
vernichten
Rechtsfehler
BÃ¼rgermeisterin
Rout
bÃ¶se
Canad
##auschen
##glichkeit
Progress
verfÃ¼gbaren
##Ausgabe
Einwei
##Minister
Aufsatz
gliedert
gewÃ¼nschten
nachfolgende
##cul
##hent
Anger
##lichung
erstrecken
identifizieren
##LP
1,7
##smann
Fisk
wild
Osman
Intensiv
erkrankt
FortfÃ¼hrung
weitreichen
Freundschafts
##kÃ¼hl
##ylon
Kubik
begrenzen
##rikan
##aserne
gelie
gÃ¼ltig
Sakrist
Gelehrten
tragenden
##endar
##ziehe
##beweis
##zwecke
AblÃ¶sung
geringem
Unterschriften
StÃ¤
##ynamik
##richtungs
##ografische
hinzugefÃ¼gt
Ã¼berarbeitet
##uta
Nem
Ries
Kraus
Comics
AutoritÃ¤t
sachgerecht
##eper
##aming
##orisch
Wirts
mechan
enthielten
##ydraul
Hexen
##ilderte
Justin
befugt
staats
gedient
unberÃ¼hrt
orientierten
132
##velop
Toni
Boxer
bauliche
verkÃ¶rperte
Steuerhinter
zurÃ¼ckzukehren
##anschau
Libert
europa
Ã„ltere
Erwerbsm
Paradies
Mindestens
legendÃ¤ren
interessieren
Staatsanleihen
Ã¼bereinstimmend
##Lou
Ahr
##ufers
Sehnsucht
##rode
begrÃ¼ÃŸt
Memorial
verlaufenden
##rose
##Fonds
Walk
reflekt
##vorsteher
Darlegungs
VerbÃ¼ndeten
GeschÃ¤ftsmann
BeschrÃ¤nkungen
Schriftstellers
##autos
##inland
Appar
##Technik
##fÃ¼hrern
Petrus
StÃ¤nde
Fahrgast
##insbesondere
Kaufvertrag
arbeitsvertrag
GeschÃ¤ftsstelle
##kugel
##Ã¤tige
Wrest
##gewÃ¤sser
Playoffs
Beschuldigten
##fristen
BeschÃ¤
Sizilien
klÃ¤gerischen
##uddh
Emig
Boots
unvor
Lippen
Registr
##kraftwerke
Stammspieler
Einb
TÃ¶ne
diene
2007/08
Arizona
Exemplar
##herapeuten
streitige
##ily
VV
BÃ¶se
haften
Schlicht
Minderung
Strafkammer
ragt
##Ã¤rztliche
SouverÃ¤n
##zid
Ib
##,...
Achse
Judent
##gewinnen
Holstein
darzustellen
Gy
Valentin
##ogels
verbietet
Lateinamerika
[unused_punctuation20]
(9
Lebe
##scheine
gÃ¼ltige
210
##azins
##zielle
Manhatt
willkÃ¼rlich
##code
##orer
Conn
##sehbar
Stadtmauer
VergnÃ¼gungs
Nichtzulassungs
##8/
Know
Talk
##wartung
Seiden
prÃ¤gen
Bahnsteig
##Tag
50.
##etzer
traum
Wisconsin
Unterdessen
NStZ
Pelz
wahl
##Gipfel
VorstoÃŸ
Befragten
palÃ¤stinens
Ã¼bersteigen
Freistellung
##minÃ¼t
##rÃ¤ten
##sches
Gaul
Buddh
GemÃ¤l
##iuseppe
geomet
KrÃ¤ften
Horizont
Betriebsrente
##neub
Ever
Pharm
##urteils
Motiven
Kunstwerke
##EF
##alais
Dahl
##befugnis
Kammern
wohnten
Wahlbezirk
verstÃ¤rken
##bock
Cart
Kurven
Pianist
Altersgrenze
##Maria
schrÃ¤g
sa
14-
6,5
##mandat
FlÃ¤ch
Sumpf
##Ã¼rzen
hast
Straub
##spfleger
steuern
Kasachst
Conference
17-
Hosen
blaue
Chelsea
Bestehens
Astronomen
Kindertages
vorzeitigen
##olds
##Frauen
##ausbau
##schach
Gesand
verleiht
befreundet
gefÃ¤hrliche
Zwischenzeit
##blut
##kante
##ugger
verantworten
##No
5-
Franklin
Kritikern
Ludwigshafen
##nit
Bahr
Kansas
Kritiken
Vorsicht
doppelte
entfÃ¼hrt
##aug
##korn
Slg
##warnung
##willigen
bewahrt
LÃ¼becker
Weihbischof
einzuhalten
##Fr
DÃ¼
##Krise
##wÃ¤ldern
500.000
Aufnahm
Limburg
dunkler
##kurrenten
GroÃŸraum
Spanisch
durchquert
##feldt
Zufl
zert
##eigene
Gilbert
##erober
Nieren
PalÃ¤stina
Stadtbahn
GestÃ¤ndnis
unterstand
angestrebten
##Klein
##Martin
##langer
Import
profil
Delegierten
umgestaltet
##Verb
##ausweis
AnnÃ¤herung
freundlich
Finanzgericht
Achsen
meines
angerufen
##mail
Einbruch
bedurfte
Wahlrecht
erfassten
Ingenieure
##icum
##Sender
Tscha
beweg
Tausend
ernÃ¤hren
spiegelt
Besoldung
verschafft
zustehenden
Kunstakademie
auszugleichen
Timo
erbe
Gauck
[...]
